<pad>	0
<s>	0
</s>	0
<unk>	0
▁	-2.93341
s	-2.98664
▁the	-3.10385
▁.	-3.36287
,	-3.39269
ed	-3.78338
▁a	-3.95314
▁to	-3.95813
▁of	-4.07697
▁in	-4.13335
ing	-4.21357
▁and	-4.22926
y	-4.23012
▁s	-4.70578
e	-4.90376
▁said	-5.01511
▁on	-5.02177
▁be	-5.04231
▁for	-5.08678
▁that	-5.12753
d	-5.14928
ly	-5.26597
▁is	-5.33967
n	-5.36765
▁was	-5.39688
▁with	-5.43426
▁it	-5.51776
▁he	-5.58782
▁at	-5.64048
en	-5.71486
▁an	-5.75471
▁from	-5.7562
▁by	-5.776
▁has	-5.8192
▁have	-5.89471
▁his	-5.90494
▁as	-5.90595
er	-5.99471
r	-6.00157
▁are	-6.01634
t	-6.04887
▁year	-6.05734
▁but	-6.06703
st	-6.08403
▁were	-6.10004
▁will	-6.11767
▁not	-6.16201
▁who	-6.18764
▁u	-6.19009
a	-6.21622
ies	-6.21948
l	-6.2652
▁after	-6.28452
▁had	-6.3205
o	-6.32706
▁t	-6.3289
es	-6.33584
▁president	-6.41542
▁this	-6.41543
▁i	-6.43964
▁their	-6.45396
▁people	-6.45981
about	-6.47837
▁more	-6.49234
▁say	-6.49329
▁new	-6.52239
▁we	-6.53384
▁two	-6.53592
an	-6.55969
▁its	-6.56997
▁which	-6.60329
▁her	-6.60525
▁up	-6.60759
▁one	-6.64132
al	-6.64526
▁korea	-6.65085
▁would	-6.66084
▁or	-6.66341
▁official	-6.66531
▁government	-6.67102
in	-6.67306
i	-6.67524
▁she	-6.67716
▁over	-6.72526
▁out	-6.72714
on	-6.74125
also	-6.74168
▁time	-6.75999
▁than	-6.76167
p	-6.76317
▁north	-6.77214
c	-6.78079
g	-6.78733
▁other	-6.80117
ion	-6.8102
▁cnn	-6.81676
▁last	-6.83894
▁police	-6.8498
▁when	-6.86192
▁day	-6.86904
ce	-6.88213
▁first	-6.89186
▁man	-6.90751
ld	-6.90921
▁al	-6.92189
▁m	-6.92834
▁all	-6.92877
▁south	-6.93447
▁no	-6.95639
▁there	-6.96615
▁into	-6.97584
▁some	-6.98082
▁us	-7.00589
▁re	-7.00746
▁can	-7.05905
u	-7.06763
▁korean	-7.07568
▁world	-7.07764
m	-7.08958
le	-7.09374
▁report	-7.10813
▁week	-7.11314
▁state	-7.12107
ic	-7.12313
▁call	-7.12402
▁you	-7.13726
▁percent	-7.14791
▁month	-7.17332
▁b	-7.17794
▁again	-7.18878
▁could	-7.19994
▁un	-7.20059
▁united	-7.20147
ers	-7.20839
▁according	-7.21487
▁so	-7.22596
▁if	-7.22731
▁go	-7.23055
ish	-7.24173
▁three	-7.25232
▁country	-7.2564
▁million	-7.27132
▁monda	-7.276
k	-7.27799
▁iraq	-7.28092
▁militar	-7.2907
▁tuesday	-7.29406
▁minister	-7.2963
h	-7.29668
f	-7.29882
ese	-7.30559
▁national	-7.31012
▁party	-7.31171
▁kill	-7.31759
ri	-7.32593
▁what	-7.3376
b	-7.34272
▁them	-7.34399
▁de	-7.35239
▁old	-7.36304
▁group	-7.36408
▁like	-7.3686
▁attack	-7.36913
▁him	-7.37578
▁do	-7.37822
esday	-7.38406
▁obama	-7.38559
▁before	-7.39113
▁force	-7.39295
▁down	-7.39657
▁most	-7.39746
▁under	-7.39872
▁since	-7.39922
▁p	-7.40045
▁sunday	-7.40049
▁wed	-7.40412
re	-7.40442
▁show	-7.40566
▁states	-7.40668
▁japan	-7.41933
w	-7.42636
▁high	-7.42768
▁home	-7.43557
▁now	-7.43862
▁how	-7.43999
ation	-7.44122
cause	-7.44425
▁where	-7.45037
▁china	-7.45274
▁bush	-7.45642
▁back	-7.4571
▁dur	-7.46166
▁near	-7.46236
ch	-7.4653
▁nuclear	-7.48975
▁just	-7.4966
▁war	-7.49781
▁off	-7.50168
▁includ	-7.50225
▁any	-7.50558
▁city	-7.51045
▁thursday	-7.51251
▁securit	-7.51341
ment	-7.52437
▁former	-7.52857
or	-7.52884
▁nation	-7.53114
▁k	-7.5314
▁w	-7.53903
▁part	-7.54412
▁may	-7.54481
▁whil	-7.54892
able	-7.55167
▁four	-7.55325
▁house	-7.5537
▁reported	-7.55673
▁take	-7.56142
tween	-7.56184
ar	-7.5688
▁made	-7.5702
ial	-7.5759
▁american	-7.59602
it	-7.62013
▁through	-7.62772
▁work	-7.63132
▁want	-7.64785
ur	-7.64915
▁end	-7.65346
man	-7.68016
▁election	-7.68111
▁long	-7.68914
▁plan	-7.69129
▁statement	-7.70428
▁did	-7.70617
th	-7.70788
▁news	-7.71089
▁see	-7.7121
▁international	-7.71776
▁right	-7.72294
▁f	-7.72672
▁my	-7.72692
▁help	-7.72812
▁g	-7.72881
▁our	-7.73427
▁found	-7.73429
▁lea	-7.73603
▁get	-7.74094
hose	-7.74236
▁car	-7.7476
ra	-7.75494
▁six	-7.75619
ity	-7.77021
▁leader	-7.77383
▁th	-7.77717
▁second	-7.77959
▁being	-7.78238
▁troop	-7.78508
is	-7.7862
ember	-7.78703
▁court	-7.78891
out	-7.78918
ary	-7.79019
▁fire	-7.79219
▁make	-7.79693
▁won	-7.80031
▁c	-7.80237
la	-7.80932
el	-7.81201
▁five	-7.81249
est	-7.82178
▁next	-7.82241
▁public	-7.82241
▁death	-7.82469
round	-7.82664
other	-7.82739
ve	-7.82849
us	-7.82852
▁arm	-7.8319
▁still	-7.83299
land	-7.83598
▁issue	-7.8383
▁foreign	-7.83909
▁me	-7.8407
▁head	-7.85034
na	-7.85099
▁prime	-7.8621
▁large	-7.86516
▁start	-7.86594
▁late	-7.86999
▁area	-7.87215
▁way	-7.87434
▁authorit	-7.87781
uch	-7.8832
ru	-7.88495
go	-7.88787
▁agenc	-7.88936
▁talks	-7.89205
▁need	-7.89319
ul	-7.89655
▁office	-7.89701
▁co	-7.90008
▁come	-7.902
ive	-7.9054
▁spokesm	-7.91243
▁hour	-7.91742
▁afghan	-7.92129
▁number	-7.92234
▁set	-7.92583
▁recent	-7.92669
v	-7.9293
▁point	-7.93704
▁follow	-7.93823
▁program	-7.94144
z	-7.94206
▁ministr	-7.94252
▁market	-7.94587
ther	-7.95076
▁seoul	-7.9533
um	-7.95884
▁close	-7.96042
ia	-7.96271
▁clinton	-7.9631
▁every	-7.96764
▁top	-7.98171
▁place	-7.98218
ro	-7.9824
▁support	-7.98527
▁site	-7.98664
▁meeting	-7.98956
▁charge	-7.99085
company	-7.99307
▁lead	-7.99512
at	-7.99672
age	-7.99957
▁washington	-8.00217
▁bank	-8.00268
▁brit	-8.0049
▁return	-8.01943
▁play	-8.01975
▁believe	-8.02007
li	-8.02209
▁case	-8.02553
▁well	-8.02686
▁iraqi	-8.02819
▁look	-8.02872
▁even	-8.03058
▁press	-8.03466
gan	-8.03617
▁children	-8.03776
▁open	-8.03987
▁deal	-8.04189
ist	-8.0452
▁both	-8.04616
▁good	-8.04646
▁billion	-8.04831
▁chief	-8.04879
▁should	-8.05786
early	-8.05907
▁campaign	-8.05956
▁service	-8.05956
▁york	-8.06078
▁ye	-8.06504
▁win	-8.06875
▁earlie	-8.06929
ent	-8.07302
one	-8.07442
▁visit	-8.07648
▁air	-8.07951
▁chin	-8.08141
▁power	-8.08283
ate	-8.0835
¡	-8.0852
▁saturday	-8.08644
▁severa	-8.08904
▁political	-8.08944
▁died	-8.08995
▁arrest	-8.09141
▁human	-8.09679
▁friday	-8.09765
▁know	-8.10031
▁think	-8.10402
▁came	-8.10641
ant	-8.10752
▁white	-8.1088
▁price	-8.11197
▁countr	-8.11308
x	-8.11556
il	-8.12217
▁members	-8.12396
▁women	-8.12689
▁general	-8.12946
▁add	-8.13433
▁life	-8.13727
very	-8.14099
▁team	-8.14125
▁democratic	-8.14153
day	-8.14194
▁ask	-8.14669
▁health	-8.14905
ever	-8.15002
▁remain	-8.15036
▁family	-8.15301
▁center	-8.15511
ty	-8.15819
▁among	-8.15975
▁economic	-8.1608
▁took	-8.16176
▁per	-8.16278
▁claim	-8.16372
▁capital	-8.1651
▁use	-8.16715
▁kim	-8.16719
▁don	-8.17205
▁water	-8.18557
▁bas	-8.1896
to	-8.1916
▁left	-8.19187
▁night	-8.19261
▁men	-8.19304
▁vote	-8.19481
▁later	-8.19645
▁try	-8.19852
ta	-8.19874
?	-8.19905
such	-8.20071
▁hit	-8.2014
▁change	-8.20227
▁turn	-8.20284
▁ma	-8.21508
expected	-8.21918
▁injur	-8.2201
▁test	-8.22154
▁n	-8.22385
▁announc	-8.22404
▁com	-8.22581
▁john	-8.22817
co	-8.22945
istan	-8.23
▁real	-8.23208
▁ago	-8.23972
▁media	-8.24034
▁lee	-8.24089
▁run	-8.24251
▁face	-8.24254
ian	-8.24349
ni	-8.24474
ard	-8.24528
▁order	-8.24807
ous	-8.25054
▁law	-8.25122
▁pakistan	-8.25126
ber	-8.25231
▁allow	-8.25395
▁record	-8.25462
▁universit	-8.25766
▁secretar	-8.25828
▁release	-8.26278
▁system	-8.26345
ak	-8.26888
▁mean	-8.26939
▁past	-8.27486
▁star	-8.27599
▁major	-8.27639
▁iran	-8.27741
▁move	-8.27785
▁la	-8.2791
▁hospital	-8.28421
ma	-8.28455
▁same	-8.2889
son	-8.29183
▁result	-8.29194
▁own	-8.2931
▁space	-8.29659
mar	-8.29906
▁ra	-8.30409
▁held	-8.30413
▁oil	-8.30425
ntil	-8.3044
▁name	-8.30692
▁business	-8.30727
▁school	-8.30769
▁effort	-8.31036
▁sign	-8.31065
ol	-8.31089
▁local	-8.31191
▁department	-8.3135
▁main	-8.31778
▁problem	-8.3197
▁econom	-8.32114
▁final	-8.32371
▁whe	-8.3241
▁student	-8.32597
▁soldier	-8.326
ter	-8.32931
▁free	-8.33109
▁dead	-8.33236
lo	-8.33367
ke	-8.33493
▁appear	-8.33524
▁third	-8.33705
▁minute	-8.34024
sterda	-8.34046
▁fight	-8.34293
▁your	-8.34451
▁concern	-8.34504
▁worker	-8.34792
▁post	-8.34864
▁militant	-8.34986
▁cha	-8.35207
▁half	-8.3544
▁few	-8.35655
▁hill	-8.3583
▁london	-8.3612
ca	-8.36137
▁province	-8.36311
▁candidate	-8.36611
▁opposition	-8.36612
▁put	-8.36816
▁rule	-8.37205
head	-8.37404
▁ve	-8.37555
▁continue	-8.37742
▁train	-8.37768
am	-8.37798
▁protest	-8.37938
sh	-8.38234
▁film	-8.3829
▁jan	-8.38412
▁morning	-8.3843
▁clear	-8.38433
ne	-8.38893
▁demand	-8.38931
bi	-8.39072
ism	-8.39276
▁defense	-8.39603
▁question	-8.39772
▁roh	-8.4
ir	-8.40001
ready	-8.40034
self	-8.40086
▁park	-8.40325
▁these	-8.40787
▁financial	-8.40966
iz	-8.41124
▁taliban	-8.41134
▁german	-8.41136
each	-8.41297
▁decision	-8.41477
ha	-8.41601
▁dec	-8.41762
▁region	-8.41865
im	-8.42177
▁reach	-8.42181
▁palestinian	-8.42341
▁leaders	-8.4258
▁young	-8.42742
▁h	-8.42757
▁led	-8.42809
▁pro	-8.43356
▁weapon	-8.43387
ie	-8.43684
▁money	-8.43753
ton	-8.43912
▁beijing	-8.43914
▁does	-8.44011
ge	-8.44304
▁bomb	-8.44308
▁big	-8.44524
▁suspect	-8.44622
ance	-8.44666
▁accus	-8.44741
▁building	-8.44766
▁far	-8.45046
▁bill	-8.45108
▁great	-8.45334
▁administration	-8.45513
▁baghdad	-8.45513
▁consider	-8.45513
▁line	-8.45513
▁agree	-8.45517
▁video	-8.45692
▁eight	-8.45737
et	-8.45932
▁march	-8.45954
▁qa	-8.45994
▁mccain	-8.46412
pp	-8.46439
▁officer	-8.46674
▁increase	-8.47138
▁small	-8.4732
less	-8.47339
▁along	-8.47409
▁source	-8.47503
▁strong	-8.47507
▁keep	-8.47685
▁give	-8.4771
▁central	-8.48052
▁food	-8.4824
▁level	-8.48249
▁sen	-8.48452
▁killing	-8.48569
▁town	-8.48719
▁confirm	-8.4893
▁miles	-8.48977
▁seven	-8.49162
▁thousand	-8.49718
▁control	-8.49729
▁best	-8.50041
ship	-8.50065
▁wound	-8.5028
▁cut	-8.50423
▁islam	-8.5044
mp	-8.5045
▁count	-8.50623
formation	-8.50919
▁current	-8.51034
▁french	-8.51413
cy	-8.51441
▁releas	-8.515
▁agreement	-8.51661
▁conference	-8.52176
ba	-8.52281
te	-8.52669
▁operation	-8.52705
▁mak	-8.52861
▁web	-8.52867
▁israeli	-8.52869
▁hope	-8.5296
▁possibl	-8.53138
▁become	-8.5314
▁israel	-8.53407
▁trade	-8.53411
▁term	-8.53505
across	-8.53525
▁station	-8.53962
ang	-8.53965
▁gas	-8.54076
▁na	-8.54133
▁southern	-8.54309
coming	-8.54357
▁east	-8.54525
▁launch	-8.54701
▁travel	-8.54716
▁mark	-8.55297
▁fund	-8.55392
▁attempt	-8.55682
▁global	-8.55682
▁po	-8.55709
▁european	-8.56577
▁aid	-8.56723
ry	-8.56796
ally	-8.56928
▁safe	-8.57027
yang	-8.57157
om	-8.57222
▁violen	-8.57249
▁spokes	-8.57497
taking	-8.57768
za	-8.57897
▁ba	-8.58355
▁person	-8.58389
▁russia	-8.5885
▁woman	-8.58969
▁border	-8.5911
▁plann	-8.59119
taken	-8.59146
▁associat	-8.59204
▁short	-8.59283
▁ho	-8.59486
▁condition	-8.5952
▁mo	-8.5968
▁di	-8.59793
▁director	-8.59986
▁pass	-8.60077
known	-8.6087
way	-8.60929
▁offer	-8.61069
▁union	-8.61227
▁barack	-8.61401
di	-8.61569
▁investigation	-8.61647
▁anti	-8.61689
▁article	-8.61812
▁full	-8.61848
▁side	-8.62018
▁jul	-8.6205
▁action	-8.62116
▁hold	-8.62343
▁reporter	-8.62348
▁base	-8.62543
▁watch	-8.62659
ness	-8.62978
▁internet	-8.63299
▁northern	-8.63306
▁comment	-8.63595
▁total	-8.63637
uar	-8.63648
▁con	-8.63767
▁cris	-8.63943
▁cost	-8.64101
▁peace	-8.64332
▁inter	-8.64351
▁committee	-8.64377
mo	-8.64428
ti	-8.64585
▁ex	-8.64595
▁live	-8.64684
▁bo	-8.65042
▁brita	-8.65206
▁federal	-8.65287
raf	-8.65453
j	-8.65555
▁here	-8.65705
▁outside	-8.65786
▁california	-8.66119
ful	-8.66183
▁sea	-8.6633
▁ap	-8.66332
▁hard	-8.66661
ea	-8.6671
▁victim	-8.66781
▁join	-8.66851
▁red	-8.6686
▁member	-8.6687
▁hundred	-8.67003
▁might	-8.67059
▁rate	-8.67089
▁never	-8.67104
▁stock	-8.67228
▁ro	-8.67235
▁republican	-8.67275
▁involv	-8.6735
▁emergenc	-8.6746
▁alleged	-8.67486
▁talk	-8.67508
▁grow	-8.67644
▁interview	-8.67671
▁airport	-8.67679
spite	-8.67899
▁pre	-8.67908
▁key	-8.68038
▁cit	-8.68073
▁black	-8.68119
▁expect	-8.68198
▁france	-8.68697
ong	-8.68773
▁bar	-8.6878
▁game	-8.6899
▁target	-8.69021
▁research	-8.6908
▁immediate	-8.69475
▁pyong	-8.69476
ine	-8.69646
▁island	-8.6972
ga	-8.698
▁congress	-8.69931
▁compani	-8.69931
▁tour	-8.70363
▁ban	-8.70421
▁hand	-8.70479
▁got	-8.70514
▁organization	-8.70867
▁must	-8.70883
▁include	-8.71264
id	-8.71381
▁girl	-8.71544
▁shot	-8.71558
▁find	-8.71559
▁tri	-8.7158
ver	-8.71639
ten	-8.71748
▁energ	-8.71777
▁went	-8.7195
▁hu	-8.72165
ough	-8.72194
▁little	-8.72245
away	-8.72357
▁fall	-8.72363
ho	-8.72532
▁process	-8.72948
▁coast	-8.72949
▁senior	-8.73183
▁olympic	-8.73419
▁sp	-8.73832
▁road	-8.73907
un	-8.74027
▁study	-8.74132
▁li	-8.74331
ler	-8.74599
▁victor	-8.74625
ling	-8.74764
▁dis	-8.74775
tan	-8.74871
▁race	-8.7489
▁sept	-8.74925
▁working	-8.75057
▁body	-8.75068
▁newspaper	-8.7509
▁project	-8.7509
▁stop	-8.75178
▁speak	-8.75582
▁pe	-8.75877
▁thing	-8.76066
▁west	-8.76138
▁council	-8.76301
ical	-8.76378
▁gen	-8.76542
▁interest	-8.76594
wa	-8.76678
▁develop	-8.76735
hi	-8.76762
▁pay	-8.76779
▁future	-8.76789
▁lot	-8.76795
▁civilian	-8.77048
me	-8.7706
▁gra	-8.77089
up	-8.77464
vi	-8.77599
▁movie	-8.77717
▁san	-8.77771
ill	-8.77828
▁june	-8.77847
▁less	-8.77898
▁suggest	-8.78021
▁russian	-8.78087
▁event	-8.78269
▁child	-8.78312
▁search	-8.78518
▁policy	-8.7856
▁da	-8.78629
▁further	-8.78773
▁dr	-8.78884
▁plane	-8.79008
▁previous	-8.79017
▁list	-8.79234
▁england	-8.79268
▁light	-8.79307
▁ka	-8.79457
▁prosecutor	-8.79532
▁due	-8.79566
ig	-8.79879
▁meet	-8.80122
▁cross	-8.80277
▁tell	-8.80436
▁suicide	-8.8053
▁america	-8.80569
▁carry	-8.80601
▁urg	-8.8063
▁heart	-8.80718
▁george	-8.8104
▁television	-8.81058
▁poll	-8.81171
▁measure	-8.81186
▁toward	-8.81187
thing	-8.81317
▁share	-8.81621
side	-8.81628
▁wide	-8.81754
▁nov	-8.81775
▁weekend	-8.8182
▁terror	-8.82048
▁act	-8.82164
▁pen	-8.8217
▁hav	-8.82182
bc	-8.82518
▁judge	-8.82588
▁hyun	-8.82595
▁son	-8.82772
▁grand	-8.8286
▁medical	-8.82862
▁che	-8.82886
▁am	-8.83005
▁couple	-8.83132
▁fail	-8.83414
▁o	-8.83597
ence	-8.8366
ci	-8.83741
woman	-8.83819
▁happen	-8.8389
▁scientist	-8.8389
▁break	-8.84153
▁phone	-8.84155
ll	-8.84157
lin	-8.84207
hind	-8.84411
▁bring	-8.84441
▁street	-8.84701
▁gaza	-8.84733
▁storm	-8.84948
ting	-8.85026
ner	-8.85155
though	-8.85386
▁ta	-8.85482
bb	-8.85543
▁elect	-8.8559
▁job	-8.85624
▁father	-8.85816
▁land	-8.85839
▁provide	-8.85996
▁serie	-8.86009
▁send	-8.86089
▁histor	-8.86477
▁mother	-8.86712
▁serious	-8.86825
▁ruling	-8.86827
tic	-8.86909
ac	-8.87092
▁mu	-8.87511
▁ground	-8.87529
▁musha	-8.87604
▁terrorist	-8.87673
ud	-8.87923
▁ki	-8.87938
▁met	-8.8814
▁sex	-8.88233
em	-8.88254
▁parliament	-8.8827
▁executive	-8.88467
▁better	-8.88486
▁lawmaker	-8.88743
by	-8.88946
▁angel	-8.89057
▁feb	-8.89064
no	-8.89065
▁hostage	-8.89316
ut	-8.8935
▁ever	-8.89542
▁inside	-8.89694
▁goal	-8.89717
ph	-8.8974
▁seek	-8.89808
▁incident	-8.89845
▁season	-8.89888
▁soon	-8.90085
▁fuel	-8.90126
▁too	-8.90211
▁stay	-8.90217
▁direct	-8.90333
▁beat	-8.90389
▁computer	-8.90405
▁strike	-8.90435
▁mission	-8.90451
lost	-8.90568
pa	-8.90615
▁approv	-8.90686
▁hotel	-8.90708
▁warn	-8.90744
▁missile	-8.9125
▁sent	-8.91291
rice	-8.91339
▁tv	-8.91366
▁role	-8.91368
▁dollar	-8.91533
▁technolog	-8.91533
▁flight	-8.91598
▁threat	-8.91768
▁communist	-8.91817
ster	-8.91887
▁lu	-8.92075
tor	-8.92206
▁sw	-8.92391
▁primar	-8.92396
▁europe	-8.92538
▁yet	-8.92572
▁industry	-8.92675
▁almo	-8.92688
▁important	-8.92691
▁cell	-8.92724
tion	-8.92823
▁cover	-8.93028
▁apri	-8.93122
▁sa	-8.93412
▁accept	-8.93539
▁express	-8.93539
▁wall	-8.93746
ka	-8.93833
▁nine	-8.93925
▁foot	-8.94123
▁cause	-8.94129
▁vi	-8.94234
▁western	-8.94365
ung	-8.94378
▁vehicle	-8.94411
▁resident	-8.94411
▁front	-8.94661
▁doctor	-8.94704
▁threaten	-8.94755
▁damage	-8.94764
ab	-8.94789
▁walk	-8.9483
▁special	-8.95154
he	-8.95237
▁receiv	-8.95238
do	-8.95299
▁wif	-8.9534
if	-8.95412
▁cr	-8.95556
▁david	-8.95586
▁disease	-8.95586
▁discover	-8.95589
▁prison	-8.95688
▁caus	-8.95711
ves	-8.95759
▁room	-8.95843
▁age	-8.95936
▁india	-8.96012
▁liv	-8.96149
▁stand	-8.96161
▁expert	-8.96179
▁voter	-8.9627
ought	-8.96603
han	-8.96625
▁step	-8.97002
ap	-8.97073
▁activit	-8.97074
▁asia	-8.97155
▁player	-8.97411
▁amid	-8.97422
▁seat	-8.97524
▁given	-8.97537
q	-8.97588
▁round	-8.97603
▁bus	-8.97635
▁democrat	-8.97892
▁trip	-8.97962
▁sell	-8.98136
▁discuss	-8.98171
▁private	-8.98285
▁ja	-8.98532
▁august	-8.98585
▁chairman	-8.98599
▁different	-8.9889
▁crash	-8.99195
▁conduct	-8.99208
▁le	-8.99331
▁detail	-8.9981
ated	-8.99817
mer	-8.99928
▁middle	-9.00119
eda	-9.00214
▁cat	-9.00301
▁supporter	-9.00418
▁refus	-9.0043
▁form	-9.00684
▁figure	-9.00739
ham	-9.00854
vez	-9.00893
▁thought	-9.01025
▁exchange	-9.0105
▁animal	-9.01051
▁guard	-9.01076
▁product	-9.01085
tra	-9.01203
▁battle	-9.0134
▁district	-9.01363
▁wor	-9.01375
▁decade	-9.0138
▁commission	-9.0141
▁love	-9.01489
▁evidence	-9.01676
▁situation	-9.01676
▁rebel	-9.02012
ger	-9.02014
ley	-9.0206
▁dozen	-9.02307
pe	-9.0231
▁camp	-9.02328
▁los	-9.0233
▁protect	-9.02512
▁message	-9.02623
▁complete	-9.02707
▁communit	-9.03259
▁australia	-9.03433
▁tax	-9.03535
▁address	-9.03578
der	-9.03618
▁ship	-9.03792
▁cho	-9.0384
▁heavy	-9.03898
▁brown	-9.03899
ell	-9.03934
▁attend	-9.04223
▁development	-9.04291
▁ver	-9.04326
▁bad	-9.04407
▁su	-9.04604
▁octo	-9.04613
ev	-9.04666
▁ha	-9.04701
▁ca	-9.04755
▁though	-9.04993
▁j	-9.0503
pi	-9.05133
▁risk	-9.05192
▁creat	-9.05249
wide	-9.05433
▁boy	-9.05461
▁deni	-9.0548
▁leave	-9.05482
▁intelligen	-9.05517
▁board	-9.05779
▁view	-9.0578
▁fr	-9.05923
min	-9.05936
▁moo	-9.06041
▁church	-9.06171
▁pressure	-9.06188
▁fell	-9.06218
▁aim	-9.06225
▁lower	-9.0644
▁fan	-9.06477
▁friend	-9.06735
▁push	-9.06831
▁gav	-9.06867
▁negotiation	-9.06876
▁crew	-9.0689
▁du	-9.06955
▁lawyer	-9.07187
▁gu	-9.07213
▁ne	-9.07487
▁pakistani	-9.07594
off	-9.07643
op	-9.07797
che	-9.08032
ors	-9.08034
▁mid	-9.0812
▁lo	-9.08143
▁summit	-9.08161
▁survey	-9.08161
▁link	-9.08175
▁senator	-9.08241
ah	-9.08247
▁spend	-9.085
▁pick	-9.08567
▁let	-9.08593
▁bid	-9.08707
▁analyst	-9.08834
▁gain	-9.08972
▁affect	-9.09171
▁paris	-9.09312
▁word	-9.0948
▁delegate	-9.0951
▁pull	-9.09512
▁river	-9.09516
ck	-9.09693
▁passenger	-9.09851
▁summer	-9.09851
▁rival	-9.09853
▁quot	-9.09948
▁speech	-9.10192
▁parent	-9.10205
▁hama	-9.10336
▁ga	-9.105
▁jo	-9.10516
bo	-9.10534
▁prevent	-9.10534
▁tokyo	-9.10535
▁florid	-9.10537
▁something	-9.10665
▁crowd	-9.10878
line	-9.10973
▁match	-9.11082
▁declar	-9.11166
▁relations	-9.11228
stead	-9.1123
▁position	-9.11569
▁buy	-9.11636
ney	-9.11676
▁vice	-9.11696
▁green	-9.11712
▁gun	-9.11819
▁illegal	-9.11916
▁cup	-9.11983
▁low	-9.12038
▁ko	-9.12259
▁deep	-9.12284
ick	-9.12297
▁enter	-9.12358
▁idea	-9.12476
▁cap	-9.12563
▁protester	-9.12597
▁rais	-9.12609
▁focus	-9.12614
▁request	-9.12614
▁daughter	-9.12614
▁leban	-9.12615
▁crime	-9.12615
▁network	-9.12617
▁staff	-9.1262
▁labor	-9.12641
▁mov	-9.12687
▁attorney	-9.12965
▁justice	-9.1297
▁continu	-9.13011
▁legal	-9.13267
men	-9.13295
▁blood	-9.13317
▁missing	-9.13742
▁je	-9.13762
low	-9.13808
▁arriv	-9.13894
▁host	-9.13937
▁online	-9.14021
▁muslim	-9.14025
▁begin	-9.14029
▁seem	-9.1403
▁league	-9.1405
▁coalition	-9.14381
▁account	-9.14381
▁reason	-9.14382
da	-9.14616
▁loss	-9.14683
biggest	-9.14708
▁gold	-9.14732
▁hong	-9.15157
▁award	-9.15317
▁rise	-9.15334
▁chance	-9.15407
ze	-9.15453
▁quick	-9.15467
came	-9.15518
▁growth	-9.15529
▁kind	-9.15623
▁schedul	-9.15625
▁carrie	-9.1569
▁credit	-9.15819
▁stage	-9.15939
▁gett	-9.16087
mb	-9.16192
▁ll	-9.16237
▁consumer	-9.16325
▁popular	-9.16545
▁draw	-9.16553
▁destroy	-9.16908
▁saw	-9.16968
▁design	-9.17096
▁eastern	-9.17112
▁identifi	-9.17157
▁decided	-9.17186
▁treat	-9.17247
▁apparent	-9.17274
▁sarkozy	-9.17274
ways	-9.17499
▁scene	-9.17647
▁rescue	-9.1776
▁games	-9.17821
▁accident	-9.18011
▁publish	-9.18011
▁rain	-9.18015
mat	-9.18042
▁bombing	-9.18152
▁feel	-9.18184
ether	-9.18205
▁democrac	-9.18382
ng	-9.1879
▁jail	-9.18802
mi	-9.19062
ack	-9.19093
▁warning	-9.19251
▁thai	-9.19576
▁matter	-9.1968
▁music	-9.19726
▁sh	-9.1976
▁el	-9.19768
▁turkey	-9.19886
ither	-9.20235
▁describ	-9.20311
▁rock	-9.2032
ois	-9.20331
▁assembly	-9.20386
▁wa	-9.20421
▁drug	-9.205
▁plant	-9.20623
▁robert	-9.20634
▁flood	-9.2065
shi	-9.20858
▁contain	-9.21013
▁runn	-9.21198
▁murder	-9.21399
▁joint	-9.21418
▁unit	-9.21554
▁present	-9.2159
▁senat	-9.21724
▁asian	-9.21726
▁se	-9.21782
▁nomination	-9.21819
▁airline	-9.21821
▁letter	-9.21825
rac	-9.21904
▁book	-9.22073
▁mi	-9.22272
▁fo	-9.22318
▁australian	-9.22338
▁relat	-9.22386
ov	-9.22691
▁rose	-9.22823
▁trad	-9.22842
▁fee	-9.22871
▁sun	-9.22949
▁population	-9.22952
▁governor	-9.22972
▁image	-9.23331
▁deput	-9.2335
▁story	-9.23363
▁leg	-9.23511
▁fact	-9.23522
▁ni	-9.23587
▁broke	-9.23643
▁radio	-9.2372
hutto	-9.23727
▁quarter	-9.23737
▁iranian	-9.23786
har	-9.23893
▁blast	-9.24109
▁port	-9.24225
ize	-9.24288
▁paul	-9.24365
▁pa	-9.24409
ad	-9.24472
▁texas	-9.24502
▁why	-9.24903
ron	-9.24969
▁dail	-9.25335
▁polls	-9.25525
per	-9.25664
▁store	-9.25669
▁difficult	-9.25692
▁embass	-9.25693
▁title	-9.25695
po	-9.25828
▁sales	-9.25923
pent	-9.26072
rought	-9.26089
▁kar	-9.26108
▁wi	-9.26399
whil	-9.26411
▁qu	-9.26489
ail	-9.2649
▁delay	-9.26504
▁document	-9.26516
▁association	-9.26711
▁researcher	-9.26792
▁facilit	-9.26899
▁royal	-9.26901
▁earth	-9.27318
▁mil	-9.275
aught	-9.27698
▁remark	-9.27709
▁debate	-9.27747
▁lives	-9.27936
▁cla	-9.28031
▁similar	-9.28117
ight	-9.28132
▁date	-9.28137
ju	-9.28345
▁fear	-9.28435
▁recover	-9.28529
▁serve	-9.28643
▁field	-9.28716
▁den	-9.28822
▁appeal	-9.28938
▁average	-9.28939
▁majorit	-9.29082
▁trial	-9.2921
▁rest	-9.2923
▁ceremon	-9.29351
▁employee	-9.29366
▁provid	-9.29387
ifi	-9.29409
▁africa	-9.29717
▁gi	-9.29722
▁neighbor	-9.29763
▁resolution	-9.29766
▁husband	-9.29767
rew	-9.29771
▁journalist	-9.29783
ana	-9.2986
▁corp	-9.2988
▁care	-9.29922
▁production	-9.29924
▁king	-9.30042
▁mountain	-9.30183
▁wait	-9.30348
▁suffer	-9.30371
ett	-9.30468
▁jobs	-9.3047
▁famili	-9.30549
▁effect	-9.30565
▁turk	-9.30594
▁reject	-9.30601
▁period	-9.30602
▁initial	-9.30606
▁lad	-9.30714
▁poor	-9.30717
▁estimate	-9.31028
bu	-9.31086
▁moment	-9.31144
▁shooting	-9.31725
▁access	-9.31784
▁sanction	-9.31867
▁kong	-9.3199
▁eu	-9.32119
▁firm	-9.32293
▁super	-9.32321
nato	-9.32375
▁owner	-9.32421
▁burn	-9.32422
▁investigator	-9.32485
▁centur	-9.32749
▁tourist	-9.32784
abe	-9.32797
▁challenge	-9.33069
▁personal	-9.33097
ram	-9.33119
▁club	-9.33153
ious	-9.33315
▁class	-9.33403
▁sentence	-9.33504
▁done	-9.33541
▁michael	-9.3358
▁progress	-9.3358
▁african	-9.33632
▁read	-9.33842
▁mass	-9.33976
time	-9.33987
▁pound	-9.34013
▁dispute	-9.3402
▁fe	-9.34102
truck	-9.34124
▁movement	-9.3417
▁doing	-9.34263
▁commander	-9.34446
hua	-9.34583
gen	-9.34688
▁reform	-9.34792
▁eye	-9.34812
▁certain	-9.34885
▁increasing	-9.34885
▁transport	-9.34885
fi	-9.35296
▁finish	-9.35347
rising	-9.35464
▁prince	-9.35508
ot	-9.35555
▁create	-9.35613
ek	-9.35749
▁gar	-9.35757
▁brief	-9.35769
▁cor	-9.35946
io	-9.35981
ja	-9.36188
▁sexual	-9.36208
▁block	-9.3624
ow	-9.36611
▁ambassador	-9.36651
▁paper	-9.36664
▁education	-9.36765
▁contract	-9.36896
ip	-9.37361
▁manager	-9.37381
▁kilometer	-9.37546
▁check	-9.37573
▁criticiz	-9.37646
▁ben	-9.3773
▁har	-9.37837
▁english	-9.37996
▁afternoon	-9.37996
▁marine	-9.38008
▁affair	-9.38449
▁saudi	-9.38449
ory	-9.38455
▁track	-9.38461
▁z	-9.38499
▁bodie	-9.38501
wood	-9.38576
▁annual	-9.38903
▁professor	-9.38903
▁course	-9.38903
▁investment	-9.38921
▁patient	-9.38931
▁operat	-9.3895
▁potential	-9.3936
▁brother	-9.39362
▁leav	-9.39621
▁wear	-9.39689
ier	-9.39764
ade	-9.39783
▁fa	-9.39785
▁detain	-9.39791
▁contact	-9.39821
▁limit	-9.39837
▁common	-9.39839
▁dropp	-9.39912
▁cabinet	-9.40279
▁export	-9.40289
aba	-9.40414
▁han	-9.40491
gi	-9.40572
▁non	-9.40631
▁driv	-9.40644
▁canno	-9.4071
▁vot	-9.40783
▁treatment	-9.40811
▁sure	-9.40888
▁sub	-9.40924
construction	-9.40951
lan	-9.41111
let	-9.41198
▁suspend	-9.41207
▁snow	-9.41215
giving	-9.41225
▁civil	-9.41239
▁rally	-9.41243
▁ice	-9.41253
▁huge	-9.41296
▁broadcast	-9.41594
▁respond	-9.41642
▁oppos	-9.4167
▁holding	-9.41679
fer	-9.41774
▁te	-9.41829
▁spoke	-9.41865
▁opening	-9.41933
▁shar	-9.42309
▁deliver	-9.4257
▁learn	-9.42623
▁rocket	-9.42645
val	-9.42893
▁art	-9.42917
▁conservative	-9.4309
▁interior	-9.4309
▁shut	-9.4312
▁announcement	-9.43121
▁raid	-9.43155
▁indian	-9.4319
▁ab	-9.43241
tu	-9.43278
▁fly	-9.43291
▁separate	-9.43566
▁square	-9.43566
▁compar	-9.43567
▁understand	-9.43879
▁dow	-9.43914
▁screen	-9.44044
▁availab	-9.44045
▁bra	-9.44331
▁social	-9.44438
our	-9.44469
▁response	-9.44525
▁normal	-9.4454
▁nav	-9.44589
▁forward	-9.44601
ft	-9.44762
▁tog	-9.44781
▁explosion	-9.45008
▁natural	-9.45008
▁hearing	-9.45123
▁fac	-9.45187
▁independent	-9.45201
▁ran	-9.45256
insula	-9.45264
▁abo	-9.45399
putin	-9.4548
▁lift	-9.45512
ik	-9.45519
▁critical	-9.45603
▁illin	-9.45632
▁village	-9.45737
▁rat	-9.45782
▁rep	-9.46129
▁single	-9.4625
▁establish	-9.46472
▁contest	-9.46472
▁probabl	-9.46473
▁bear	-9.46631
▁actor	-9.46686
▁mexic	-9.46824
▁factor	-9.46839
!	-9.46964
▁relationship	-9.46964
▁session	-9.46967
▁bin	-9.47091
▁blue	-9.47136
va	-9.47295
▁die	-9.47297
▁arab	-9.47394
▁institute	-9.47459
ware	-9.47466
▁nam	-9.47489
▁span	-9.47694
au	-9.47815
com	-9.47861
▁index	-9.47968
▁allegation	-9.47972
▁data	-9.48012
▁secret	-9.4809
▁impos	-9.48203
▁success	-9.48372
▁represent	-9.48454
▁taiwan	-9.48457
▁chica	-9.48478
▁fast	-9.48663
▁nothing	-9.48682
ef	-9.48913
▁streets	-9.48922
▁actual	-9.48965
▁drive	-9.48965
▁virginia	-9.48977
▁code	-9.49215
▁warm	-9.49251
▁nor	-9.4937
▁fish	-9.49427
▁female	-9.49464
▁spread	-9.49485
▁giant	-9.49505
▁ten	-9.49509
▁color	-9.49561
town	-9.49761
▁size	-9.4978
▁prisoner	-9.49813
▁propos	-9.49843
▁estimat	-9.49964
▁criminal	-9.49972
▁insurgent	-9.49972
▁material	-9.49972
▁territor	-9.49972
▁smith	-9.49973
▁investor	-9.50063
▁investigat	-9.50327
▁require	-9.50331
▁sha	-9.5035
nder	-9.5039
▁relative	-9.50532
▁slow	-9.50652
▁bit	-9.50764
▁mail	-9.50953
▁defend	-9.50972
▁avoid	-9.50997
▁min	-9.51016
▁italian	-9.51028
▁kid	-9.51212
▁themsel	-9.51404
▁card	-9.51476
▁helicopter	-9.51511
▁worth	-9.51611
ging	-9.51632
▁responsibilit	-9.52029
▁shiite	-9.52029
▁sold	-9.52037
▁electric	-9.52038
▁diplomatic	-9.52108
▁bak	-9.52155
harry	-9.52179
▁van	-9.52194
▁earn	-9.52267
ada	-9.52289
▁range	-9.52325
special	-9.52445
night	-9.52453
▁particular	-9.5255
▁honor	-9.52551
▁command	-9.52553
▁nasa	-9.52608
▁cars	-9.52813
ki	-9.52884
▁citizens	-9.52929
▁satellite	-9.53073
▁nominee	-9.53073
▁weather	-9.53075
ez	-9.53081
▁winning	-9.53103
▁boat	-9.53157
▁amount	-9.53184
▁produc	-9.53285
▁fil	-9.53392
▁raise	-9.53393
▁del	-9.53538
▁industrial	-9.5363
▁lack	-9.53657
▁shin	-9.53703
▁build	-9.53824
▁partie	-9.53954
▁import	-9.54099
▁approach	-9.54128
▁barrel	-9.5416
▁involve	-9.54191
▁camera	-9.54344
ran	-9.54372
▁va	-9.54532
▁richard	-9.54687
▁voice	-9.54713
gnp	-9.5473
▁stopp	-9.54974
ward	-9.55044
▁ready	-9.55103
ari	-9.55161
▁societ	-9.55195
▁xin	-9.55236
▁occurr	-9.55255
▁chung	-9.55273
▁additional	-9.55415
▁hop	-9.55477
▁insist	-9.55567
▁mayor	-9.55731
▁rich	-9.55813
body	-9.55816
▁yo	-9.5583
▁seiz	-9.56119
med	-9.56166
pain	-9.56193
berg	-9.56317
▁visitor	-9.56324
▁truck	-9.56444
▁ti	-9.56477
▁rare	-9.56522
▁born	-9.56595
▁fill	-9.56598
▁earthquake	-9.56817
▁science	-9.56817
▁finding	-9.57032
▁fine	-9.57051
abilit	-9.57126
▁toll	-9.57162
▁def	-9.57175
▁convict	-9.57252
▁zone	-9.57412
▁winner	-9.57442
▁committ	-9.5749
where	-9.57564
board	-9.57813
▁peaceful	-9.57957
▁standard	-9.57962
▁jones	-9.57999
▁scor	-9.58004
▁gather	-9.5814
well	-9.5816
rote	-9.5824
▁hands	-9.58313
▁chang	-9.58339
▁value	-9.58468
▁prize	-9.58474
▁moon	-9.58857
▁jet	-9.58933
▁responsibl	-9.59021
▁supreme	-9.59021
▁speed	-9.59109
▁quit	-9.59171
▁friends	-9.59182
▁bur	-9.59187
▁experience	-9.59316
▁original	-9.59395
▁abuse	-9.59477
▁pai	-9.59534
▁refugee	-9.59579
▁review	-9.59579
ritten	-9.5958
▁euro	-9.59614
▁motor	-9.59619
gh	-9.59667
uk	-9.59956
▁meter	-9.60131
▁carolina	-9.60141
▁mosco	-9.60148
▁demonstration	-9.60183
▁sch	-9.60193
ani	-9.60222
▁drink	-9.60721
▁severe	-9.60751
kept	-9.60797
▁ii	-9.6088
▁abu	-9.61049
lor	-9.6114
▁resign	-9.61216
▁college	-9.61274
▁extend	-9.61275
▁aircraft	-9.61293
▁defeat	-9.61298
▁door	-9.61306
▁massive	-9.61323
▁model	-9.61368
▁brain	-9.61422
▁ital	-9.61553
over	-9.6166
▁activist	-9.61846
▁attention	-9.61846
▁reduce	-9.61935
▁relie	-9.62079
kin	-9.62171
▁steps	-9.62232
▁condemn	-9.6242
▁maintain	-9.62421
▁opportunit	-9.62421
▁jump	-9.62422
▁reactor	-9.62451
▁driver	-9.62635
▁peter	-9.62714
▁engineer	-9.62824
▁regime	-9.62923
▁forecast	-9.62999
▁alliance	-9.62999
▁regard	-9.62999
▁bird	-9.63001
▁hurt	-9.63001
que	-9.63055
ium	-9.63187
ire	-9.63248
oft	-9.63353
▁flu	-9.63407
▁imp	-9.63455
▁drop	-9.63508
▁object	-9.6358
▁combat	-9.63581
▁significant	-9.63604
▁syria	-9.63607
▁ali	-9.63782
▁song	-9.64095
▁pacifi	-9.64165
▁cancer	-9.64173
▁flow	-9.64274
▁bomber	-9.64424
▁et	-9.64443
▁evening	-9.64563
▁tibet	-9.6461
▁georgia	-9.64753
▁double	-9.64753
▁indonesia	-9.64877
▁partner	-9.6488
burg	-9.65096
▁independen	-9.65109
uc	-9.65337
▁monitor	-9.65345
▁queen	-9.65367
▁usual	-9.65383
▁tr	-9.65625
▁page	-9.65736
▁hall	-9.65776
▁sale	-9.65893
▁pennsylvania	-9.6594
▁guilt	-9.65941
▁admitted	-9.65942
▁representative	-9.65943
▁tom	-9.66191
▁sharp	-9.66226
▁critic	-9.66248
▁kidnapp	-9.6629
tro	-9.66306
▁chi	-9.66427
▁customer	-9.66442
▁corrupt	-9.66539
▁museum	-9.66539
▁premier	-9.66539
▁boost	-9.66542
▁beginning	-9.6655
▁marriage	-9.66565
▁beach	-9.66842
tter	-9.66858
con	-9.66944
▁baby	-9.67093
▁envoy	-9.67141
▁explosive	-9.67141
▁prompt	-9.67142
▁prosecution	-9.67158
▁bridge	-9.67166
ei	-9.67225
▁receive	-9.67251
▁discussion	-9.67362
ado	-9.67462
▁custod	-9.67747
▁supplie	-9.67747
▁micros	-9.67753
▁performance	-9.67768
▁id	-9.67863
mon	-9.67928
▁remov	-9.67995
▁fighter	-9.68009
hu	-9.68124
▁parliamentar	-9.68168
ily	-9.68232
qui	-9.68347
▁conflict	-9.68357
▁device	-9.68357
▁management	-9.68358
▁abbas	-9.68359
tt	-9.68421
▁whom	-9.68569
fa	-9.689
▁clean	-9.68971
▁ohio	-9.68975
▁fair	-9.6904
olmer	-9.69071
ink	-9.69372
▁vo	-9.69435
▁impact	-9.69588
▁james	-9.69693
▁mind	-9.6979
ub	-9.70022
▁petr	-9.70076
rat	-9.70203
▁necessar	-9.70209
▁pursu	-9.70209
▁bu	-9.70223
▁politician	-9.70231
▁christian	-9.70232
ou	-9.70325
▁soft	-9.70782
▁perform	-9.70812
▁character	-9.70834
▁stress	-9.70845
gue	-9.70873
▁tension	-9.70929
aw	-9.71165
▁repeated	-9.71384
az	-9.71387
▁forest	-9.71413
▁holiday	-9.71463
▁kurd	-9.71467
▁communication	-9.71492
print	-9.71501
▁finance	-9.71513
▁uk	-9.71799
▁environmental	-9.71843
▁formal	-9.71859
▁intend	-9.7188
tar	-9.71911
▁mis	-9.71971
▁content	-9.72097
▁window	-9.72102
▁yu	-9.72194
▁col	-9.72284
▁argu	-9.72288
▁ball	-9.72422
▁constitution	-9.72489
▁republic	-9.7259
▁benefit	-9.72733
▁climat	-9.72733
▁surprise	-9.72733
▁adopt	-9.72734
▁sound	-9.72734
▁specific	-9.72736
▁commercial	-9.72752
▁criticism	-9.72757
her	-9.72813
▁surger	-9.72936
▁attract	-9.72959
▁environment	-9.72998
▁ky	-9.73002
▁dae	-9.73069
▁buil	-9.73252
▁career	-9.73265
▁opinion	-9.73374
▁scandal	-9.73374
▁mosque	-9.73375
▁choice	-9.73376
▁aide	-9.73744
▁traditional	-9.73756
▁author	-9.73761
ami	-9.738
▁uri	-9.73851
chi	-9.73884
▁traffic	-9.73947
▁speci	-9.74
▁x	-9.74255
▁promis	-9.74262
▁pan	-9.74375
▁tank	-9.74685
▁panel	-9.7472
▁produce	-9.74737
▁tree	-9.74771
▁dan	-9.74775
▁pack	-9.74786
rk	-9.74959
ox	-9.75061
▁schools	-9.75141
▁regional	-9.75161
▁controll	-9.7529
▁fifth	-9.75342
▁route	-9.75356
▁str	-9.75361
back	-9.75418
gar	-9.75553
▁statu	-9.75739
▁emb	-9.75769
▁spot	-9.75853
▁bag	-9.75856
we	-9.759
▁indicat	-9.75908
▁acknowledg	-9.7598
▁restaurant	-9.7598
▁answer	-9.7598
▁collapse	-9.7607
▁broad	-9.76158
nel	-9.76193
▁sta	-9.76453
▁bay	-9.76456
▁violat	-9.76532
▁zimbabwe	-9.76642
▁difference	-9.76642
▁language	-9.76642
▁negotiator	-9.7676
▁proposal	-9.76812
▁colombia	-9.76846
▁heat	-9.76859
▁ski	-9.77101
▁mc	-9.7711
▁farm	-9.77257
pool	-9.77272
work	-9.77297
▁electronic	-9.77309
▁treasur	-9.77309
▁quake	-9.77309
▁fresh	-9.77309
▁failure	-9.7731
▁penalt	-9.77314
▁reserve	-9.77472
▁polic	-9.77558
▁resume	-9.7769
▁diplomat	-9.7795
▁complex	-9.7798
▁mobile	-9.7798
▁sleep	-9.7798
▁reveal	-9.77981
▁mad	-9.78135
▁blam	-9.78182
▁mal	-9.78258
▁banks	-9.7834
▁respect	-9.78618
▁favor	-9.7865
▁assault	-9.78655
▁domestic	-9.78655
▁telephone	-9.78655
▁disaster	-9.78656
▁apple	-9.78662
▁gates	-9.78673
▁cancel	-9.78688
ina	-9.78715
▁mine	-9.79097
iff	-9.79218
▁astronaut	-9.79336
▁recall	-9.79336
▁profit	-9.79336
▁shuttle	-9.79336
▁coach	-9.79337
▁holly	-9.7934
▁francis	-9.79355
▁dangerous	-9.79355
▁wave	-9.79369
▁band	-9.7937
▁fla	-9.79439
▁option	-9.79448
▁violent	-9.79451
▁predict	-9.79452
lew	-9.79482
iya	-9.79583
▁hear	-9.79636
▁mag	-9.79658
new	-9.79693
▁sides	-9.79972
▁asp	-9.80021
▁agent	-9.80067
▁auto	-9.80115
often	-9.80302
▁addition	-9.80453
▁academ	-9.8071
▁individual	-9.8071
▁teacher	-9.80718
▁football	-9.80721
▁exist	-9.80815
▁stone	-9.80866
▁protection	-9.80952
▁surge	-9.81029
ook	-9.81274
▁ku	-9.81351
▁possibilit	-9.81405
▁supply	-9.81405
▁cash	-9.81476
▁myung	-9.81515
▁planet	-9.81603
▁pat	-9.81829
▁withdraw	-9.81974
hal	-9.82045
▁positive	-9.82104
▁neighborhood	-9.8211
▁spring	-9.82115
▁powerful	-9.82203
▁plea	-9.82227
▁wood	-9.82279
▁tight	-9.82435
▁pain	-9.82466
▁sunni	-9.82537
▁touch	-9.82609
ite	-9.82633
ova	-9.82636
▁birth	-9.82779
▁introduc	-9.82808
▁magazine	-9.82808
▁trigger	-9.82808
▁adult	-9.82809
▁package	-9.82845
▁mug	-9.82862
down	-9.82993
▁gang	-9.8308
▁lone	-9.83328
▁strateg	-9.83404
▁herald	-9.83545
▁vow	-9.83587
▁male	-9.83707
field	-9.83905
▁struggl	-9.83923
af	-9.84021
seas	-9.84076
▁miss	-9.84082
▁hot	-9.84207
▁wrong	-9.84232
▁adviser	-9.84255
▁hair	-9.84307
▁tru	-9.84392
▁winds	-9.84418
▁suit	-9.84472
▁cast	-9.84538
▁tough	-9.84582
ura	-9.84807
gun	-9.84865
▁wing	-9.84868
htt	-9.84874
▁brazil	-9.84924
▁behavior	-9.84951
▁headquarter	-9.84951
▁ocean	-9.84952
▁else	-9.85039
▁stem	-9.85067
▁jong	-9.8507
lum	-9.85092
▁winter	-9.85102
iv	-9.85117
▁box	-9.85139
▁trouble	-9.85303
▁promise	-9.85406
ture	-9.8549
▁cur	-9.85609
▁fi	-9.85651
▁degree	-9.85676
▁referr	-9.85676
▁declin	-9.85788
▁tech	-9.8579
▁ring	-9.85801
▁rank	-9.85819
▁piece	-9.85924
ko	-9.86105
cent	-9.86145
▁hat	-9.86223
▁flights	-9.8628
▁mary	-9.86284
▁evacuat	-9.86295
▁memor	-9.86359
▁merc	-9.86399
▁crude	-9.86406
▁dream	-9.86406
▁felt	-9.86407
▁engag	-9.86412
▁display	-9.86413
▁appearance	-9.86506
▁wild	-9.86588
▁fears	-9.86657
▁bri	-9.86667
▁barr	-9.86952
▁hunt	-9.87009
▁wal	-9.87034
▁anniversar	-9.87141
▁singapore	-9.87141
▁solution	-9.87141
▁straight	-9.87141
▁shock	-9.87151
ification	-9.8716
▁type	-9.87161
ahoo	-9.87186
▁deadline	-9.87193
▁km	-9.87231
ization	-9.87251
▁sometime	-9.873
▁god	-9.87353
▁extra	-9.87655
▁flag	-9.87834
▁hurricane	-9.87882
▁pilot	-9.87882
▁dismiss	-9.87882
▁bal	-9.87959
▁blow	-9.88051
▁sav	-9.88157
▁politic	-9.88291
ester	-9.88545
▁regular	-9.88628
▁examin	-9.88629
▁cold	-9.88661
▁roll	-9.8874
uff	-9.88754
▁secure	-9.88846
▁riot	-9.88879
ob	-9.88891
▁reut	-9.88905
▁las	-9.88934
▁loan	-9.88973
▁jer	-9.88997
▁save	-9.89073
▁showing	-9.89147
▁cent	-9.89196
▁employ	-9.89354
▁detect	-9.8938
▁plot	-9.89388
▁apartment	-9.89405
▁successful	-9.89406
▁dress	-9.89414
▁blai	-9.89471
▁ji	-9.89472
▁hole	-9.89495
▁improve	-9.89959
▁legislati	-9.90137
▁channel	-9.90138
▁entire	-9.9014
▁virus	-9.90143
▁marri	-9.90192
▁location	-9.90258
mph	-9.90323
▁drugs	-9.90434
gone	-9.90454
▁net	-9.90506
llah	-9.90569
▁dog	-9.90699
▁disc	-9.90729
▁highway	-9.90776
▁locat	-9.90794
▁tape	-9.90849
drid	-9.90887
▁expand	-9.90901
▁famous	-9.90901
▁resort	-9.90901
▁twic	-9.90903
▁influence	-9.90908
▁style	-9.90913
▁trail	-9.90919
▁freedom	-9.90934
▁rob	-9.90974
▁surrounding	-9.90996
▁equal	-9.9107
▁makes	-9.91196
▁maker	-9.91219
▁pra	-9.91223
▁resolve	-9.91359
ional	-9.91422
bre	-9.91441
▁bann	-9.91485
▁lay	-9.91533
▁score	-9.91583
▁alcohol	-9.9167
▁climb	-9.9167
▁conclud	-9.9167
▁happy	-9.91671
▁correspondent	-9.91673
▁malik	-9.91698
▁true	-9.9185
▁gunm	-9.91887
▁jur	-9.92057
▁witnesse	-9.92075
▁apologiz	-9.9211
▁il	-9.92218
unt	-9.92233
▁govern	-9.92323
▁distribut	-9.92445
▁malaysia	-9.92445
▁oscar	-9.92445
▁spark	-9.9246
▁mount	-9.92465
▁assistant	-9.92625
▁trust	-9.92715
hran	-9.92795
oc	-9.93037
orrow	-9.93347
▁sky	-9.93469
ble	-9.9362
▁inc	-9.93627
▁whole	-9.93652
▁propert	-9.93661
▁item	-9.93663
▁arabia	-9.9367
eva	-9.93687
▁row	-9.93723
▁negotiat	-9.93763
▁manag	-9.93792
zai	-9.93871
cient	-9.93988
▁decline	-9.94013
▁confidence	-9.94014
▁vessel	-9.94015
▁sudan	-9.94021
▁cooper	-9.9404
▁charles	-9.94088
▁patrol	-9.94189
▁tibetan	-9.94206
▁seed	-9.94524
▁bab	-9.94552
oil	-9.94626
▁journal	-9.94775
▁frank	-9.94808
▁christmas	-9.94809
▁producer	-9.94809
▁qualit	-9.94814
▁festival	-9.94826
ntagon	-9.94861
▁floor	-9.94864
▁feature	-9.95072
▁bang	-9.95191
rry	-9.95223
ua	-9.9532
▁handl	-9.95339
▁singer	-9.95369
▁paint	-9.95505
▁emerg	-9.95564
▁division	-9.95608
▁extreme	-9.95608
▁palace	-9.95608
▁abandon	-9.95609
▁competition	-9.9561
▁controversial	-9.9564
▁fled	-9.95656
▁dark	-9.95699
▁exile	-9.9572
ay	-9.95779
▁replace	-9.96074
▁tens	-9.96147
▁easi	-9.96193
ition	-9.96195
▁champions	-9.96318
▁roman	-9.96394
▁hussein	-9.96414
▁ticket	-9.96414
▁studie	-9.96416
▁throw	-9.96449
▁enem	-9.96469
▁resignation	-9.96497
overall	-9.96561
▁abe	-9.96571
▁organiz	-9.96599
▁surviv	-9.96653
ji	-9.96657
▁spa	-9.96749
▁william	-9.9677
▁advance	-9.96852
▁determine	-9.9689
▁mr	-9.96908
▁tear	-9.96926
eastern	-9.96948
port	-9.96991
▁rod	-9.96996
▁stabili	-9.97014
▁photograph	-9.97047
erson	-9.97203
▁explain	-9.97227
▁heavi	-9.9723
▁eventual	-9.97237
▁constitutional	-9.9739
▁setting	-9.97393
hor	-9.97457
▁active	-9.9762
▁williams	-9.97688
ural	-9.97725
ilbo	-9.98023
▁kosov	-9.98048
▁alert	-9.98078
▁torch	-9.98127
▁divid	-9.98153
▁zoo	-9.9831
▁burma	-9.98407
▁steve	-9.98409
▁shop	-9.98515
▁stepp	-9.98526
▁rape	-9.98536
▁table	-9.9862
ima	-9.98689
ball	-9.98704
▁explod	-9.98873
▁recession	-9.98873
▁reflect	-9.98873
▁anonym	-9.98873
▁christophe	-9.98873
▁retir	-9.98889
▁rush	-9.98896
ide	-9.98899
▁gord	-9.98942
▁weight	-9.99
▁northeast	-9.99282
▁era	-9.99302
▁gay	-9.99465
bul	-9.99582
▁concert	-9.99706
▁practice	-9.99706
▁install	-9.99707
▁serving	-9.99707
▁ronald	-9.99707
▁strip	-9.99735
▁counter	-10.0008
xi	-10.0018
▁culture	-10.0026
cc	-10.003
▁clo	-10.0039
▁multi	-10.0046
▁appoint	-10.005
▁picture	-10.0054
▁select	-10.0055
▁consult	-10.0055
▁doubt	-10.0055
▁inform	-10.0055
▁pop	-10.0059
▁sam	-10.006
▁kick	-10.0075
▁beyon	-10.008
▁prepared	-10.009
▁arms	-10.0093
▁harm	-10.01
▁effective	-10.0103
ott	-10.0108
▁smoke	-10.0113
▁transfer	-10.0113
▁prove	-10.012
▁collect	-10.0128
▁pope	-10.0137
▁convention	-10.0138
▁fraud	-10.0139
▁actress	-10.0139
▁scale	-10.0143
▁halt	-10.0143
▁demonstrator	-10.0155
▁survivor	-10.0163
▁sense	-10.0169
▁lake	-10.0177
lit	-10.0195
▁sports	-10.0206
▁via	-10.0212
▁casualt	-10.0225
▁condoleez	-10.0225
▁tournament	-10.0225
▁shift	-10.0225
▁erupt	-10.0225
▁spear	-10.0225
▁portug	-10.0225
bor	-10.023
▁connection	-10.0235
▁mor	-10.0239
▁violation	-10.0239
▁sentenc	-10.0245
▁martin	-10.0248
▁smok	-10.0252
▁pledg	-10.0256
tz	-10.0265
vin	-10.0273
▁tim	-10.0299
▁cooperati	-10.0308
▁egypt	-10.0308
▁opponent	-10.0311
▁religious	-10.0311
▁various	-10.0311
▁soviet	-10.0311
▁beckham	-10.0311
▁draft	-10.0311
atomic	-10.0313
▁commitment	-10.0314
▁announce	-10.0323
▁declaration	-10.0326
▁farmer	-10.0327
▁scar	-10.0333
▁shap	-10.035
▁historic	-10.035
ala	-10.0357
▁determined	-10.0361
▁foundation	-10.037
▁pet	-10.0375
▁damag	-10.0383
▁signal	-10.0384
cher	-10.0387
light	-10.0394
▁losing	-10.0394
▁advi	-10.0398
▁audience	-10.0398
▁boycott	-10.0398
▁brand	-10.0399
▁par	-10.0407
ribe	-10.0408
ford	-10.0413
▁withdrawal	-10.0414
▁mont	-10.0417
uck	-10.0418
▁cre	-10.0424
ino	-10.0435
▁mars	-10.0437
olog	-10.0451
▁jew	-10.0455
▁allie	-10.0461
▁complain	-10.0462
▁currenc	-10.0486
▁entertain	-10.0486
▁argentin	-10.0486
▁cruise	-10.0486
▁user	-10.0495
stance	-10.0524
▁apolog	-10.0526
▁clashe	-10.0527
▁witness	-10.0528
▁self	-10.053
▁blame	-10.0548
▁tony	-10.0567
azir	-10.057
▁dialogue	-10.0574
▁implement	-10.0574
▁militia	-10.0574
▁ukrain	-10.0574
▁pictures	-10.0575
▁crackdown	-10.0575
▁medicine	-10.0575
▁shoot	-10.0604
jo	-10.0608
diana	-10.0622
ilton	-10.0622
uz	-10.0626
▁teen	-10.0633
▁presen	-10.0634
▁yang	-10.0661
pol	-10.0662
▁pregnan	-10.0664
▁enjoy	-10.0664
▁modern	-10.0664
▁version	-10.0665
▁flame	-10.0666
▁probe	-10.0667
▁wealth	-10.0673
▁asset	-10.0674
▁shari	-10.068
▁ceo	-10.0689
ept	-10.0697
▁guy	-10.0701
▁kh	-10.0705
▁kidnapping	-10.0707
▁ending	-10.0713
ara	-10.0717
▁buri	-10.0719
▁hous	-10.0722
▁feder	-10.0739
salem	-10.0739
▁speaker	-10.075
▁enforce	-10.0754
▁budget	-10.0754
▁delegation	-10.0754
graph	-10.076
▁mix	-10.0761
▁southeast	-10.0781
shore	-10.0783
▁mart	-10.0784
him	-10.0797
▁pledge	-10.0812
alone	-10.0823
▁welcome	-10.0824
▁deploy	-10.0839
ular	-10.0842
▁destructi	-10.0845
▁register	-10.0845
▁temperature	-10.0845
▁virtual	-10.0845
gged	-10.0845
▁belong	-10.0845
▁rapid	-10.0846
▁fellow	-10.0847
western	-10.0848
▁sector	-10.0853
▁edward	-10.0865
fu	-10.0876
log	-10.0881
▁dut	-10.0886
▁pose	-10.0897
surance	-10.0898
▁organizer	-10.0924
▁danger	-10.0936
▁serbia	-10.0936
▁kennedy	-10.0936
▁machine	-10.0936
▁favorite	-10.0937
▁orbit	-10.0937
▁income	-10.094
▁sister	-10.0942
▁stake	-10.0945
junta	-10.0955
tts	-10.0955
▁mile	-10.0962
▁slight	-10.097
▁jose	-10.0978
cation	-10.0981
▁suffering	-10.0988
▁weak	-10.0993
dai	-10.1
▁generat	-10.1009
▁nad	-10.1016
▁nu	-10.1019
zo	-10.1022
▁saddam	-10.1029
▁unveil	-10.1029
▁wolf	-10.1029
▁edge	-10.1031
▁fix	-10.1033
▁urani	-10.1039
▁gov	-10.1067
▁kenya	-10.1076
▁ahmadi	-10.108
▁wind	-10.1086
rop	-10.1086
▁laws	-10.1091
▁sand	-10.1096
▁minor	-10.1118
▁artist	-10.1121
▁ethnic	-10.1122
▁vietnam	-10.1122
▁license	-10.1122
▁unlike	-10.1122
▁michi	-10.1124
zi	-10.1133
▁decide	-10.114
▁economist	-10.1142
▁liver	-10.1143
ique	-10.1143
fare	-10.1147
▁observ	-10.1159
▁physical	-10.1164
▁basic	-10.1164
▁cuba	-10.1183
▁enrich	-10.1217
▁nicola	-10.1217
▁philippine	-10.1217
▁regulation	-10.1217
▁simpson	-10.1217
▁exact	-10.1217
▁ensure	-10.1217
▁bond	-10.1221
▁ranking	-10.1221
huse	-10.1223
▁reaction	-10.1224
▁hang	-10.1225
itarian	-10.1237
▁generation	-10.1239
▁mon	-10.1239
aid	-10.1242
▁stoo	-10.1249
▁lose	-10.1286
▁ag	-10.1303
▁fit	-10.131
▁catholic	-10.1312
▁disappoint	-10.1312
▁remote	-10.1312
▁stadium	-10.1312
▁championship	-10.1314
▁coup	-10.1317
▁inspector	-10.1317
▁hwan	-10.1318
▁lev	-10.1323
▁improv	-10.1328
mun	-10.133
▁broken	-10.133
▁sadr	-10.1334
ribal	-10.1338
▁hamp	-10.1339
▁cb	-10.1374
▁standing	-10.1376
served	-10.1385
▁whale	-10.1387
▁chose	-10.1395
▁christ	-10.1396
▁massac	-10.1398
bow	-10.1401
▁example	-10.1408
▁purpose	-10.1408
▁symbol	-10.1408
▁arizo	-10.1408
▁grant	-10.1409
▁connect	-10.1412
aff	-10.1413
▁chair	-10.1416
▁wonder	-10.1424
dom	-10.1429
suu	-10.1431
▁path	-10.1432
maker	-10.1454
▁shopp	-10.1454
▁angr	-10.1466
▁mistake	-10.1477
▁manufactur	-10.1489
▁contribut	-10.1494
▁indicate	-10.1499
▁sponsor	-10.1505
▁alaska	-10.1505
▁googl	-10.1505
▁surface	-10.1506
▁rallie	-10.1506
▁inspir	-10.1506
▁iowa	-10.1506
▁chart	-10.1512
▁vega	-10.1516
▁grave	-10.1536
tun	-10.1541
iro	-10.1562
for	-10.157
abul	-10.1574
▁reduc	-10.159
▁depend	-10.1603
▁perfect	-10.1603
▁fashion	-10.1603
▁liberal	-10.1603
▁nepal	-10.1603
▁trapp	-10.1604
corporate	-10.1609
▁file	-10.1626
iri	-10.1659
▁foreigner	-10.1663
▁photos	-10.1675
craft	-10.17
▁equipment	-10.1702
▁expens	-10.1702
▁obtain	-10.1702
▁visa	-10.1706
▁rough	-10.1708
▁hung	-10.172
haps	-10.1726
cut	-10.173
lated	-10.1738
tel	-10.1752
oli	-10.1752
hai	-10.1764
▁commissioner	-10.1787
▁categor	-10.1802
▁celebrit	-10.1802
▁task	-10.1804
▁speculation	-10.1807
▁dutch	-10.1809
▁pal	-10.1811
hood	-10.1812
dna	-10.1815
stein	-10.1815
▁guest	-10.1817
▁writer	-10.1821
▁strengthen	-10.1829
▁founder	-10.1833
▁hid	-10.1837
arian	-10.1843
▁assist	-10.1844
▁santa	-10.1849
ible	-10.1871
ican	-10.1873
broad	-10.1877
▁achieve	-10.1878
ville	-10.1882
put	-10.1883
▁collaps	-10.1889
▁traveler	-10.1893
▁rom	-10.1899
▁colleague	-10.1903
▁resource	-10.1903
▁subject	-10.1903
▁globe	-10.1903
▁narrow	-10.1903
▁carbon	-10.1903
▁warrant	-10.1903
▁ir	-10.1907
▁assassination	-10.1908
▁wake	-10.1911
▁invite	-10.1911
▁complaint	-10.1931
▁requir	-10.1933
ock	-10.1939
▁promote	-10.1943
▁wen	-10.1949
▁pri	-10.1949
▁rang	-10.1953
▁captur	-10.1981
▁runner	-10.1987
▁manch	-10.199
▁nominat	-10.1994
▁putt	-10.2005
▁coordinat	-10.2005
▁detention	-10.2005
▁magnitude	-10.2005
▁nevada	-10.2005
▁trillion	-10.2005
▁auction	-10.2005
▁sheriff	-10.2005
▁daniel	-10.2005
▁relay	-10.2007
▁pla	-10.2014
▁thank	-10.2017
▁citizen	-10.2034
tract	-10.2034
▁ang	-10.2054
llo	-10.2082
▁defin	-10.2083
▁basi	-10.2098
▁pin	-10.2108
▁louis	-10.2108
▁professional	-10.2108
▁bureau	-10.2108
▁internal	-10.211
▁ease	-10.2114
hand	-10.2115
▁champion	-10.2119
itting	-10.212
▁transition	-10.2123
▁electora	-10.2124
▁closer	-10.214
▁debt	-10.2144
▁arrival	-10.2147
▁theater	-10.2155
van	-10.2157
▁anger	-10.2159
▁duba	-10.2161
▁pair	-10.2167
ota	-10.2191
row	-10.2194
▁taxe	-10.22
▁ferr	-10.2208
unch	-10.221
water	-10.221
▁crucial	-10.2213
▁mahmoud	-10.2213
▁suburb	-10.2213
▁invasion	-10.2213
▁temporar	-10.2213
mouth	-10.2214
▁jackson	-10.2215
▁thanks	-10.2218
▁restriction	-10.2221
▁simpl	-10.2225
ground	-10.2228
▁cia	-10.2235
war	-10.2235
▁books	-10.2249
▁calm	-10.2251
▁bell	-10.2252
▁fay	-10.2253
▁isolat	-10.226
▁remove	-10.2276
▁terr	-10.2282
▁samsun	-10.229
▁provinc	-10.23
rc	-10.2307
spread	-10.2313
▁organ	-10.2314
▁exercise	-10.2318
▁institution	-10.2318
▁remember	-10.232
bro	-10.232
▁stall	-10.2321
▁pitt	-10.2323
▁mike	-10.2325
▁monk	-10.233
▁tall	-10.2338
▁maca	-10.2339
shire	-10.2343
itz	-10.2351
▁none	-10.2356
▁mate	-10.236
ord	-10.2364
▁mayb	-10.2367
the	-10.2384
▁colombian	-10.2393
acco	-10.2404
house	-10.2408
▁presiden	-10.241
▁aware	-10.2417
▁disrupt	-10.2424
▁agricultur	-10.2424
▁identify	-10.2424
▁outbreak	-10.2424
▁lawsuit	-10.2424
▁arrive	-10.2424
▁hir	-10.2426
▁estate	-10.2426
▁bailout	-10.2427
▁jung	-10.2429
▁memorial	-10.2432
▁eat	-10.2434
▁sit	-10.2452
▁rid	-10.2469
▁rome	-10.2493
▁sport	-10.2497
▁fun	-10.2502
▁dogs	-10.2503
▁jim	-10.2514
▁meant	-10.2515
▁rad	-10.2517
▁leak	-10.2524
▁offensive	-10.2532
▁sudden	-10.2532
▁choose	-10.2532
▁album	-10.2532
▁libya	-10.2533
▁batter	-10.2535
▁revis	-10.2538
▁prais	-10.2539
space	-10.2543
▁master	-10.2545
▁para	-10.2546
eating	-10.2552
▁catch	-10.2568
▁venezuela	-10.2594
▁mac	-10.2602
▁authoriz	-10.2612
▁skin	-10.2618
▁unemploy	-10.264
▁advantage	-10.264
▁counterpart	-10.264
▁sensitiv	-10.264
live	-10.2642
▁berlin	-10.2642
▁proceed	-10.2642
▁tiger	-10.2644
▁lie	-10.2645
▁joong	-10.2646
▁nobel	-10.2648
▁feeling	-10.2648
ini	-10.2655
▁exit	-10.2665
▁schedule	-10.2699
▁princess	-10.2704
▁freed	-10.2719
▁guid	-10.2737
▁advertis	-10.275
▁explor	-10.275
▁guarantee	-10.275
▁suspicion	-10.275
▁veteran	-10.275
▁editor	-10.275
▁dominat	-10.2751
▁reduction	-10.2752
▁potter	-10.2754
▁split	-10.2755
▁label	-10.2757
otic	-10.2758
lanta	-10.2762
▁handed	-10.2768
▁shak	-10.2777
▁spy	-10.2779
▁participat	-10.2799
▁citi	-10.281
▁dong	-10.2812
▁tons	-10.2813
▁infect	-10.285
▁prepar	-10.2851
room	-10.2853
▁permanent	-10.2861
▁mel	-10.2864
▁lend	-10.2868
▁teenager	-10.2873
▁johnson	-10.2886
▁offering	-10.2888
oline	-10.2891
kk	-10.2899
▁dam	-10.2914
ison	-10.293
▁sydn	-10.2942
rod	-10.2947
▁cal	-10.295
▁cutt	-10.2953
▁phil	-10.2959
▁escape	-10.2962
▁compound	-10.2974
▁zealand	-10.2974
▁technical	-10.2974
▁soccer	-10.2974
▁plung	-10.2974
▁unclea	-10.2974
▁alexand	-10.2975
▁detonat	-10.2976
▁chels	-10.2978
▁thu	-10.2987
▁mohamm	-10.3029
enko	-10.3032
ersey	-10.3054
appropriate	-10.3087
▁austria	-10.3087
▁devastat	-10.3087
▁firefighter	-10.3087
▁frequent	-10.3087
▁emission	-10.3087
▁excit	-10.3088
▁pirate	-10.3088
▁strain	-10.3088
▁kingdom	-10.3089
▁easy	-10.309
▁delta	-10.3093
lick	-10.3112
▁expectation	-10.3118
▁cultur	-10.3156
▁encourage	-10.3166
▁flo	-10.3179
olar	-10.3182
▁simple	-10.3189
▁abduct	-10.3191
▁wo	-10.3196
▁recommend	-10.3196
▁recruit	-10.3202
▁atmospher	-10.3202
▁ignor	-10.3202
▁shelter	-10.3203
stream	-10.3204
▁canadian	-10.3205
mus	-10.3208
▁highlight	-10.321
▁comfort	-10.3236
▁engine	-10.3237
▁harv	-10.3262
▁dar	-10.3263
▁lt	-10.3275
▁worse	-10.3286
▁lock	-10.331
awi	-10.3315
▁except	-10.3319
▁faith	-10.3319
▁froze	-10.3319
▁plus	-10.3319
▁element	-10.3319
▁corner	-10.3323
▁text	-10.3328
▁renew	-10.3335
▁wish	-10.3336
▁shortage	-10.3338
▁landing	-10.3367
▁combin	-10.3379
▁bob	-10.3388
▁investigate	-10.3393
arta	-10.3394
▁assistan	-10.3406
▁describe	-10.3419
kok	-10.3428
▁diamond	-10.3436
▁unusual	-10.3436
▁volunteer	-10.3436
▁chemical	-10.3436
▁profile	-10.3436
▁agenda	-10.3436
▁valley	-10.3436
▁debut	-10.3437
▁pav	-10.3437
▁bone	-10.3444
▁section	-10.3446
▁hospitaliz	-10.3449
▁campus	-10.3453
▁mention	-10.3459
▁ray	-10.346
▁payment	-10.3463
▁cool	-10.3472
▁listen	-10.3478
▁pace	-10.348
▁struggle	-10.3487
fall	-10.3503
▁percentage	-10.3519
▁bull	-10.3529
▁youth	-10.3549
▁disappear	-10.3553
▁negative	-10.3555
▁thomas	-10.3555
yongbyon	-10.3555
▁writing	-10.3555
▁cleric	-10.3555
▁seal	-10.3559
▁elder	-10.3562
▁ride	-10.3563
▁digital	-10.3563
▁shoe	-10.3573
feld	-10.358
▁ear	-10.3584
▁tip	-10.3597
▁div	-10.3598
▁khan	-10.3605
▁waste	-10.3613
attle	-10.3619
▁clash	-10.3628
▁bound	-10.3636
▁rescuer	-10.3637
▁forum	-10.3638
▁pc	-10.3639
▁lab	-10.3648
▁clon	-10.3667
▁sad	-10.3668
▁matt	-10.3669
▁stimul	-10.3676
▁stretch	-10.3676
▁studio	-10.3676
▁abdullah	-10.3676
▁mccann	-10.3676
▁conspirac	-10.3676
▁clinic	-10.3677
▁bullet	-10.3678
▁crack	-10.368
▁knee	-10.3681
▁jack	-10.3682
▁nature	-10.3683
▁dump	-10.3683
▁sort	-10.3684
▁wedding	-10.3693
illa	-10.3703
ella	-10.3712
dev	-10.3722
▁pun	-10.3727
▁henr	-10.3728
cla	-10.3734
▁proper	-10.3737
via	-10.3739
▁gap	-10.3741
beth	-10.3744
ehouse	-10.3745
▁oust	-10.3756
istic	-10.3783
▁confident	-10.3798
▁statistic	-10.3798
▁abdul	-10.3798
▁jeff	-10.3798
▁pump	-10.3798
▁ghaz	-10.3798
▁bottle	-10.3799
▁realiz	-10.3799
▁chun	-10.3807
▁tend	-10.3812
▁edition	-10.3817
▁jak	-10.3828
▁indiana	-10.3841
▁metal	-10.3858
▁homeland	-10.3873
▁robot	-10.3874
▁feed	-10.3883
ida	-10.3898
▁scot	-10.39
▁palm	-10.3907
▁bio	-10.3911
tiny	-10.3919
▁alternative	-10.3921
▁conservation	-10.3921
▁darfur	-10.3921
▁exhibit	-10.3921
▁principle	-10.3921
▁succeed	-10.3921
▁divorce	-10.3921
▁error	-10.3921
▁identit	-10.3921
▁desert	-10.3921
▁radical	-10.3923
▁root	-10.3927
▁execution	-10.3931
▁lowest	-10.3937
▁woo	-10.3954
eath	-10.3958
▁venezuelan	-10.3975
▁southwest	-10.3978
▁observer	-10.3997
mitt	-10.4004
▁lim	-10.4013
▁reviv	-10.4027
▁convoy	-10.4046
▁length	-10.4046
▁mortgage	-10.4046
▁preliminar	-10.4046
▁procedure	-10.4046
▁inflation	-10.4046
▁maxim	-10.4046
▁yellow	-10.4046
▁bright	-10.4046
▁dramatic	-10.4047
▁balance	-10.405
▁gulf	-10.4051
▁purchase	-10.4056
▁proud	-10.4057
▁closing	-10.4057
more	-10.4064
▁mur	-10.407
▁boss	-10.4072
tah	-10.4074
▁rail	-10.4075
▁colon	-10.4077
▁chip	-10.4087
▁notice	-10.4107
▁tam	-10.4123
▁northwest	-10.4136
▁complet	-10.4139
▁strength	-10.4139
▁prov	-10.4146
▁journey	-10.4173
▁household	-10.4173
▁youtube	-10.4173
▁method	-10.4173
▁psycholog	-10.4173
▁intention	-10.4173
▁soar	-10.4175
▁copy	-10.4175
▁neck	-10.4178
▁priorit	-10.4179
▁prett	-10.418
▁boom	-10.4184
▁hezb	-10.4201
▁maj	-10.4212
▁cheer	-10.4231
▁lama	-10.4242
▁sean	-10.4279
▁plead	-10.4279
band	-10.4289
▁controvers	-10.4296
▁gonzale	-10.4301
▁sustain	-10.4301
▁margin	-10.4301
▁client	-10.4301
▁gallon	-10.4301
▁shrine	-10.4301
▁indict	-10.4301
▁chrys	-10.4301
madeleine	-10.4301
▁cease	-10.4302
nke	-10.4312
▁direction	-10.4321
▁jam	-10.4323
▁string	-10.4341
load	-10.4355
▁reading	-10.4358
▁emi	-10.4361
▁fata	-10.4389
▁chad	-10.4395
▁tire	-10.4407
ential	-10.4417
▁hum	-10.4424
chu	-10.4426
▁depress	-10.4431
▁overwhelm	-10.4431
continent	-10.4431
▁absolute	-10.4431
▁bottom	-10.4431
▁breath	-10.4431
▁glass	-10.4431
▁steel	-10.4431
▁vacation	-10.4432
▁captiv	-10.4432
▁cloud	-10.4433
▁ambitio	-10.4436
▁charit	-10.4437
▁truth	-10.4439
▁drew	-10.4441
▁pollut	-10.4442
▁patric	-10.4452
▁dala	-10.4462
▁capture	-10.4464
▁bosto	-10.4478
▁fate	-10.4486
▁sick	-10.4492
air	-10.4497
▁steven	-10.4505
▁gathering	-10.4523
▁boe	-10.4541
roll	-10.4542
▁sight	-10.4545
▁surround	-10.4547
▁structure	-10.4562
▁captain	-10.4562
▁bilateral	-10.4563
▁drove	-10.4563
▁firing	-10.4564
▁osam	-10.4564
▁ballot	-10.4564
▁disney	-10.4569
▁innocent	-10.4569
ative	-10.457
▁deployment	-10.457
▁divers	-10.4573
▁hopeful	-10.4574
▁battl	-10.4582
▁endors	-10.4585
▁mandat	-10.4596
fire	-10.4601
▁kang	-10.4609
ugg	-10.4628
▁holy	-10.4651
▁flee	-10.4666
▁chain	-10.4667
arah	-10.4671
wise	-10.4671
▁oh	-10.4686
script	-10.4696
▁correct	-10.4696
▁experiment	-10.4696
▁immigrat	-10.4696
▁tsunami	-10.4696
▁vladimir	-10.4696
▁graduat	-10.4696
▁knock	-10.4696
▁afford	-10.4696
▁automaker	-10.4697
▁acre	-10.4703
▁cheap	-10.4704
aeus	-10.471
▁grew	-10.4712
▁jesu	-10.4713
▁shout	-10.4714
▁liter	-10.4716
▁operate	-10.4716
▁storie	-10.4717
▁islamist	-10.4719
iana	-10.4741
▁rev	-10.4742
▁survive	-10.4753
▁carrier	-10.479
▁recognize	-10.4805
▁write	-10.4806
▁weigh	-10.481
▁slave	-10.481
lock	-10.4831
▁girlfriend	-10.4831
▁landslide	-10.4831
▁pitch	-10.4831
▁outrage	-10.4831
ehud	-10.4839
▁delivery	-10.4844
▁disabl	-10.4854
inches	-10.4855
▁kerr	-10.4857
baki	-10.486
▁hero	-10.4862
▁fatal	-10.4871
▁weaken	-10.4881
▁vast	-10.4897
▁vat	-10.4903
▁participate	-10.4907
▁featur	-10.4923
▁cow	-10.4925
▁cable	-10.4929
▁indonesian	-10.4939
▁sect	-10.4944
▁invest	-10.4949
▁peru	-10.4954
▁promot	-10.4957
▁convince	-10.4968
▁typical	-10.4968
▁wildlife	-10.4968
▁corporation	-10.4968
▁plastic	-10.4968
kansa	-10.4969
nhap	-10.497
▁inspection	-10.4972
▁atlantic	-10.4973
▁scott	-10.4995
upper	-10.4999
▁photo	-10.5005
▁whal	-10.5011
▁tradition	-10.5026
agan	-10.5035
sumption	-10.5085
ku	-10.5093
▁barcelon	-10.5107
▁conversation	-10.5107
▁dictator	-10.5107
▁squad	-10.5107
▁ultimate	-10.5107
▁dismantl	-10.5107
▁sample	-10.5107
▁blaze	-10.5107
▁endanger	-10.5107
▁initiative	-10.5108
▁numer	-10.5109
▁temple	-10.5114
▁defendant	-10.5115
▁collection	-10.5125
▁gore	-10.5126
▁inde	-10.5133
top	-10.5138
▁restore	-10.5147
cia	-10.5151
▁yard	-10.5183
▁celebrat	-10.5227
▁restrict	-10.5237
▁drama	-10.5246
▁manipulat	-10.5248
▁brutal	-10.5248
▁jordan	-10.5248
▁knowledge	-10.5248
▁prospect	-10.5248
▁revenue	-10.5248
▁genetic	-10.5248
▁lobby	-10.5248
▁fin	-10.5248
▁marc	-10.5251
▁brazilian	-10.5253
▁crop	-10.5261
▁fox	-10.5269
▁joe	-10.529
▁luc	-10.5299
teen	-10.5303
▁miner	-10.5323
aki	-10.5351
▁execut	-10.5376
▁accord	-10.5386
▁prostitut	-10.539
▁buddhist	-10.539
▁escalat	-10.539
▁participant	-10.539
▁routine	-10.539
▁capacit	-10.5391
▁infant	-10.5392
▁birthday	-10.5397
▁stole	-10.54
ejad	-10.5409
▁nur	-10.5417
▁wheel	-10.5434
bel	-10.5439
▁worrie	-10.5445
bun	-10.5454
▁smil	-10.5464
▁bail	-10.5465
clu	-10.5474
▁rap	-10.5491
▁farc	-10.5493
▁fur	-10.5502
atic	-10.551
▁denounc	-10.5535
▁superdelegate	-10.5535
▁surrender	-10.5535
▁impress	-10.5535
armament	-10.5535
▁eliza	-10.5536
▁illness	-10.5536
▁belgi	-10.5537
hattan	-10.554
▁roof	-10.554
▁morgan	-10.5541
▁extremist	-10.5543
daq	-10.5544
▁shang	-10.5549
▁blog	-10.5551
▁escap	-10.5551
▁veto	-10.5563
▁brad	-10.5563
alban	-10.5564
▁runway	-10.5587
▁pad	-10.5588
▁hiv	-10.5615
bol	-10.5643
▁demonstrat	-10.5644
chuan	-10.5654
ark	-10.5666
grade	-10.5667
▁kyo	-10.5671
evin	-10.5676
▁stag	-10.5681
▁airstrike	-10.5682
▁circumstance	-10.5682
▁defect	-10.5682
▁hawaii	-10.5682
▁shirt	-10.5683
▁urban	-10.5683
▁michel	-10.5683
▁ordinar	-10.5683
▁nigeria	-10.5683
▁expos	-10.5683
▁supervis	-10.5683
▁branch	-10.5683
▁optimis	-10.5683
▁fortune	-10.5684
▁tropica	-10.5685
▁distance	-10.5686
▁punishment	-10.5687
folk	-10.5689
▁peak	-10.57
▁shark	-10.5707
▁preserv	-10.5717
▁accusation	-10.5731
▁complicat	-10.5736
▁beef	-10.5739
▁kenyan	-10.5757
▁jon	-10.576
ippi	-10.5765
▁somali	-10.5773
▁react	-10.5795
▁danc	-10.5812
▁striker	-10.5816
▁anticipat	-10.5832
▁obvious	-10.5832
▁secular	-10.5832
▁athlete	-10.5832
▁switch	-10.5832
▁scrap	-10.5832
▁moderate	-10.5832
▁strict	-10.5832
▁cyclone	-10.5834
▁columbia	-10.5836
▁settlement	-10.5837
▁chile	-10.5854
▁mini	-10.5856
▁slipp	-10.586
▁photographer	-10.5866
▁gree	-10.5898
▁silv	-10.5904
▁fif	-10.5906
▁map	-10.5907
▁revolutionar	-10.591
▁fat	-10.5933
▁commit	-10.5944
▁caucuse	-10.5965
▁extinct	-10.5983
▁instruct	-10.5983
▁scientific	-10.5983
▁arsenal	-10.5983
▁coffee	-10.5983
▁spirit	-10.5983
▁dinner	-10.5983
▁gmt	-10.5984
▁transform	-10.5984
▁clip	-10.5985
▁native	-10.599
▁bowl	-10.5991
▁capit	-10.5994
▁lung	-10.5995
▁argument	-10.5996
witz	-10.601
▁congo	-10.6019
▁transferr	-10.6031
▁affiliate	-10.6045
▁replac	-10.6046
owitz	-10.606
kat	-10.6067
▁moral	-10.6077
▁mode	-10.6096
▁dub	-10.6099
▁wire	-10.611
▁mental	-10.6113
▁hide	-10.6127
▁shell	-10.6136
▁occasion	-10.6137
▁peacekeep	-10.6137
▁surveill	-10.6137
▁sovereign	-10.6137
▁intense	-10.6137
▁hawk	-10.6138
▁mississ	-10.6138
▁trend	-10.6138
▁sailor	-10.6138
▁yoo	-10.6143
▁prefer	-10.6143
▁cloth	-10.6145
▁bitter	-10.6145
evich	-10.6146
▁successor	-10.6158
▁freeze	-10.6159
▁manufacturer	-10.6162
▁novel	-10.6163
▁dick	-10.6169
▁hail	-10.6169
▁welcom	-10.6175
▁greet	-10.6177
att	-10.6191
ira	-10.6191
▁mcc	-10.625
▁cab	-10.6279
▁televis	-10.6282
▁civi	-10.6283
▁spott	-10.6284
▁influ	-10.6292
▁priva	-10.6292
▁metropoli	-10.6293
▁dispatch	-10.6293
▁eliminat	-10.6293
▁venue	-10.6293
▁watchdog	-10.6293
▁stephen	-10.6293
▁midnight	-10.6297
▁passport	-10.6297
▁inquir	-10.6299
▁appointment	-10.6304
▁fame	-10.6311
▁copie	-10.6313
▁spur	-10.6326
▁cave	-10.6329
▁sole	-10.6348
▁deliberat	-10.6374
▁physic	-10.6382
▁zar	-10.6383
▁prepare	-10.6393
▁flat	-10.6398
erkel	-10.6399
▁undergo	-10.6416
obe	-10.6447
▁regulator	-10.6452
▁wreck	-10.6452
▁multiple	-10.6452
▁testimon	-10.6452
▁convert	-10.6452
▁sweet	-10.6452
▁application	-10.6452
▁swiss	-10.6453
▁toxic	-10.6454
▁egyptian	-10.6457
▁debri	-10.6457
▁federation	-10.6462
oding	-10.6463
▁harsh	-10.6463
▁rumor	-10.6472
▁operator	-10.6504
▁musical	-10.6508
▁resolv	-10.6517
▁shoulder	-10.6519
▁mir	-10.6568
tag	-10.6591
▁historical	-10.6599
▁disagree	-10.6613
▁phoeni	-10.6613
▁supposed	-10.6613
▁confess	-10.6613
▁funeral	-10.6613
▁crown	-10.6613
▁dvd	-10.6614
▁quiet	-10.6614
ullah	-10.6614
▁cafe	-10.6614
▁barrier	-10.6616
▁temp	-10.6616
▁settle	-10.6618
▁beaut	-10.6619
▁twin	-10.6619
▁celebrate	-10.6624
▁spill	-10.6625
▁trick	-10.6625
▁polar	-10.6626
▁assert	-10.6627
▁chris	-10.6628
▁medal	-10.663
▁traffick	-10.6631
▁castro	-10.6634
▁indication	-10.6641
▁whit	-10.6646
▁tower	-10.665
▁matche	-10.6682
▁gro	-10.6694
▁torture	-10.6695
▁moham	-10.6706
▁rubb	-10.671
▁iron	-10.6715
▁chest	-10.6726
▁canad	-10.6731
losi	-10.6773
▁apart	-10.6773
▁arrang	-10.6777
▁bangladesh	-10.6777
▁counsel	-10.6777
▁shareholder	-10.6777
▁verdict	-10.6777
▁commut	-10.6777
▁fierce	-10.6777
▁false	-10.6777
▁lanka	-10.6778
▁villa	-10.678
ologist	-10.6798
▁broadcaster	-10.6806
▁diet	-10.6808
▁socialist	-10.6808
▁hub	-10.6812
▁maria	-10.6813
▁slid	-10.6814
▁realit	-10.6816
quo	-10.6816
▁permit	-10.6825
▁mexican	-10.6826
▁yong	-10.6845
▁designat	-10.6858
▁gul	-10.6889
efa	-10.689
▁wage	-10.6916
court	-10.692
▁resist	-10.6938
▁prohibit	-10.6944
precedent	-10.6944
▁benchmark	-10.6944
▁boyfriend	-10.6944
▁cambodia	-10.6944
▁occupation	-10.6944
▁micro	-10.6944
▁reconciliat	-10.6944
▁antarctic	-10.6944
▁vital	-10.6945
▁loyal	-10.6945
▁joseph	-10.6946
▁alex	-10.6947
▁barbar	-10.6948
▁careful	-10.6951
▁flash	-10.6952
▁amnes	-10.6953
▁apply	-10.6954
▁yemen	-10.6961
▁luck	-10.6967
▁gross	-10.6971
▁custom	-10.6971
hook	-10.6983
▁carlo	-10.6993
▁eric	-10.6994
▁mud	-10.6997
▁unknown	-10.7006
▁somalia	-10.701
▁villager	-10.7032
pover	-10.7034
▁jin	-10.704
math	-10.7048
▁commerc	-10.711
▁conclusion	-10.7113
▁mccorm	-10.7113
▁orchestra	-10.7113
▁uniform	-10.7113
▁benedict	-10.7113
▁mourn	-10.7114
▁appli	-10.7114
manuel	-10.7115
▁advisor	-10.7117
▁skill	-10.7118
▁preparation	-10.7122
russel	-10.7126
ature	-10.7129
erdog	-10.7132
▁solve	-10.7132
▁stern	-10.7135
▁compete	-10.7135
▁attitude	-10.7139
▁franc	-10.72
▁hack	-10.7209
▁scan	-10.7229
place	-10.7238
▁restor	-10.7262
▁nak	-10.7265
▁concentrat	-10.7286
▁function	-10.7286
▁rebuild	-10.7286
▁smuggl	-10.7286
▁typhoon	-10.7286
▁unfortunate	-10.7286
▁czech	-10.7286
▁volcano	-10.7286
▁sweep	-10.7286
▁persuad	-10.7286
▁blago	-10.7286
▁attach	-10.7287
mumba	-10.7287
▁repair	-10.7287
▁entry	-10.7288
▁latin	-10.7288
▁solid	-10.7289
▁clark	-10.729
▁punish	-10.7291
▁cleve	-10.7297
▁qualifi	-10.7299
▁infection	-10.7303
▁antoni	-10.7305
▁specialist	-10.7306
▁familiar	-10.7308
▁brun	-10.7311
▁encourag	-10.7341
▁pill	-10.7355
▁cargo	-10.7362
▁bolt	-10.7381
▁cuban	-10.7384
kov	-10.7444
▁grab	-10.7448
▁colli	-10.7454
▁aggressive	-10.7461
▁breakthrough	-10.7461
▁concrete	-10.7461
▁laptop	-10.7461
▁separatist	-10.7461
▁fernand	-10.7461
▁luxur	-10.7461
▁reference	-10.7461
▁variet	-10.7461
▁regret	-10.7461
▁sheikh	-10.7461
▁striking	-10.7461
▁shield	-10.7461
▁legend	-10.7462
▁petition	-10.7462
▁zero	-10.7463
▁await	-10.7463
▁prayer	-10.7465
▁gift	-10.7465
▁odd	-10.7466
▁ethic	-10.7467
▁clock	-10.747
luton	-10.747
▁cook	-10.7474
▁athen	-10.7481
play	-10.7482
▁classic	-10.7492
▁rent	-10.7495
▁conviction	-10.7497
▁stable	-10.75
▁substantial	-10.7501
pec	-10.752
▁fta	-10.7526
▁paulo	-10.7543
▁ryan	-10.7565
ket	-10.7596
▁worri	-10.7614
▁classifi	-10.7615
pot	-10.7633
▁interpret	-10.764
▁frustrat	-10.764
▁glacier	-10.764
▁immigrant	-10.764
▁imprison	-10.764
▁pilgrim	-10.764
▁assessment	-10.764
▁departure	-10.764
▁tennesse	-10.764
▁tackle	-10.764
▁gambar	-10.764
▁garden	-10.7641
▁kiss	-10.7641
▁confrontation	-10.7645
▁laugh	-10.7645
▁chong	-10.7648
tuck	-10.765
▁motion	-10.7653
▁worry	-10.7654
▁philip	-10.7656
▁opt	-10.7663
▁donor	-10.7677
▁retail	-10.7687
kara	-10.7711
▁shipp	-10.7713
▁ok	-10.7715
▁tale	-10.772
▁nanc	-10.7729
▁troubl	-10.7733
▁phila	-10.7738
▁rio	-10.7762
▁airway	-10.7775
▁dust	-10.7776
▁compet	-10.7798
cheong	-10.7806
▁virgin	-10.7815
▁compensation	-10.7822
▁muscle	-10.7822
▁referendum	-10.7822
▁kuwait	-10.7822
▁contrast	-10.7822
▁sentiment	-10.7822
conscious	-10.7823
▁stunn	-10.7823
cious	-10.7826
▁impeach	-10.7828
▁impossibl	-10.7831
▁detainee	-10.7833
▁railway	-10.7833
▁roger	-10.7833
▁undermine	-10.7842
obi	-10.7843
irai	-10.7845
nnan	-10.7849
▁tsv	-10.7858
▁minorit	-10.786
jiang	-10.7873
mbled	-10.7875
▁turnout	-10.7877
▁rever	-10.7882
▁rum	-10.7892
castle	-10.7896
disclos	-10.79
▁melt	-10.7903
▁shah	-10.7904
▁rafa	-10.7906
▁kate	-10.7932
▁overcom	-10.7948
mond	-10.7953
hou	-10.7995
▁ethiopia	-10.8007
▁fundamental	-10.8007
▁platform	-10.8007
▁vaccine	-10.8007
▁darwin	-10.8007
▁galax	-10.8007
▁caution	-10.8007
▁essential	-10.8007
▁laborator	-10.8007
▁retain	-10.8007
▁breach	-10.8007
▁slump	-10.8007
▁smash	-10.8007
delphi	-10.8007
▁outcome	-10.8007
▁unrest	-10.8008
▁orange	-10.8008
▁golf	-10.8008
▁invent	-10.801
▁chant	-10.8015
▁audit	-10.8017
nica	-10.8017
▁semi	-10.8017
▁stick	-10.8018
▁huck	-10.8022
▁plain	-10.803
▁float	-10.804
▁breed	-10.8042
visibl	-10.8046
▁buyer	-10.8059
▁contender	-10.8059
▁moore	-10.8069
▁hyp	-10.8094
▁revolution	-10.8097
umi	-10.8118
▁assur	-10.8131
▁promotion	-10.8136
half	-10.8153
▁clothe	-10.8167
▁consequence	-10.8196
▁drunk	-10.8196
▁guerrilla	-10.8196
▁quarterfinal	-10.8196
▁residence	-10.8196
▁transaction	-10.8196
▁rifle	-10.8196
▁crush	-10.8196
▁tunnel	-10.8196
▁checkpoint	-10.8196
▁compos	-10.8196
▁liquid	-10.8196
▁davis	-10.8196
wright	-10.8197
▁creature	-10.8197
▁donald	-10.8197
▁monkey	-10.8198
▁stalin	-10.82
▁robber	-10.8202
ood	-10.8214
▁larr	-10.8217
▁upset	-10.8224
▁mob	-10.8224
▁slamm	-10.8238
▁fleet	-10.8239
liga	-10.8249
wear	-10.8262
burgh	-10.8269
▁burst	-10.8282
▁kent	-10.8282
rav	-10.8287
▁endur	-10.8311
ridge	-10.8365
clusive	-10.8386
▁hijack	-10.8388
▁exposure	-10.8388
▁cartoon	-10.8388
▁stroke	-10.8388
▁portray	-10.8388
▁offender	-10.8388
▁laurea	-10.8388
▁expir	-10.8389
▁greenhouse	-10.839
▁horse	-10.839
▁phase	-10.839
▁relocation	-10.8393
▁missou	-10.8394
▁curb	-10.8405
▁adam	-10.8406
▁alleg	-10.8408
▁wrapp	-10.8412
▁displac	-10.8417
▁strategic	-10.8419
▁hunter	-10.8432
▁admit	-10.844
therland	-10.8449
▁mom	-10.8471
▁hostil	-10.8473
cker	-10.8473
▁worsen	-10.8477
▁disclose	-10.8503
▁banner	-10.858
▁cycl	-10.8581
▁adventur	-10.8584
▁administrative	-10.8584
▁bankruptc	-10.8584
▁extraordinar	-10.8584
▁hybrid	-10.8584
▁qualify	-10.8584
▁semifinal	-10.8584
▁minimum	-10.8584
▁technique	-10.8584
▁pattern	-10.8584
▁abortion	-10.8584
▁swimming	-10.8584
▁dawn	-10.8584
▁strand	-10.8584
▁alarm	-10.8584
▁hamid	-10.8585
▁mohammad	-10.8586
▁panama	-10.8587
ttle	-10.8587
▁panda	-10.8588
▁deadlie	-10.8593
▁respective	-10.8595
▁timor	-10.8597
▁runoff	-10.86
▁centre	-10.8607
▁eve	-10.8613
▁challeng	-10.8621
▁rem	-10.8626
▁serb	-10.863
▁coca	-10.8631
hdi	-10.8633
ux	-10.8637
identifi	-10.8649
▁fever	-10.8664
▁rub	-10.8719
standing	-10.8721
▁retailer	-10.8732
▁slam	-10.8744
▁swor	-10.8751
▁submit	-10.8756
bur	-10.8762
▁ambush	-10.8784
▁amendment	-10.8784
▁exploit	-10.8784
▁rodrigue	-10.8784
▁transparen	-10.8784
▁twenty	-10.8784
▁motivat	-10.8784
▁reiterat	-10.8784
▁thrill	-10.8784
▁giuli	-10.8784
▁testify	-10.8784
▁prior	-10.8785
▁anchor	-10.8785
▁wildfire	-10.8785
▁orlean	-10.8785
▁embryo	-10.8785
▁toilet	-10.8786
▁substance	-10.8786
▁wireless	-10.8787
▁rider	-10.8787
▁ripp	-10.8788
▁stuff	-10.8788
▁plate	-10.8789
▁addict	-10.8792
▁gear	-10.8793
▁greek	-10.8793
▁duck	-10.8798
▁hike	-10.8798
▁mall	-10.8799
▁jungle	-10.88
▁albert	-10.8802
▁laid	-10.8813
▁submitt	-10.8813
▁evacuation	-10.8815
▁viewers	-10.8823
▁emotional	-10.8832
▁concept	-10.8842
▁portion	-10.8843
group	-10.8863
weight	-10.8864
intend	-10.8868
▁inaugurat	-10.8895
opec	-10.8902
lahor	-10.894
▁lunch	-10.8943
▁egg	-10.8963
▁biolog	-10.8986
▁interven	-10.8988
▁attribut	-10.8988
▁compromise	-10.8988
▁efficient	-10.8988
▁launder	-10.8988
▁aftershock	-10.8988
▁rudd	-10.8989
▁enhanc	-10.899
▁cyber	-10.8991
▁disappearance	-10.8992
▁hindu	-10.9
▁celebration	-10.9004
▁leftist	-10.9037
▁homeless	-10.9056
▁nice	-10.9062
▁icon	-10.9077
ilit	-10.9092
▁gaz	-10.9107
ioc	-10.9115
▁rowl	-10.9158
▁chase	-10.9189
fold	-10.9194
▁cigarette	-10.9196
▁denucleariz	-10.9196
▁deteriorat	-10.9196
▁encounter	-10.9196
▁fulfill	-10.9196
▁obligation	-10.9196
▁spiritual	-10.9196
▁vulnerab	-10.9196
▁swift	-10.9196
▁relax	-10.9196
▁constant	-10.9196
▁summon	-10.9197
▁traged	-10.9197
▁confus	-10.9197
▁audio	-10.9197
cliff	-10.9197
▁timetable	-10.9197
▁inquest	-10.9198
▁houston	-10.9202
▁simon	-10.9202
▁emphasiz	-10.9207
▁kitt	-10.9212
▁abduction	-10.9217
▁reward	-10.9234
▁pali	-10.9246
▁origin	-10.9266
▁faction	-10.927
▁deb	-10.9272
▁meat	-10.9274
▁polan	-10.9287
▁oversee	-10.9287
▁advanc	-10.9294
onda	-10.9327
tina	-10.9331
arachi	-10.9345
hem	-10.9377
▁cub	-10.9381
▁kyu	-10.9381
▁bribe	-10.9384
cheon	-10.9386
▁blanket	-10.9409
▁elephant	-10.9409
▁enterprise	-10.9409
▁evaluat	-10.9409
▁voluntar	-10.9409
▁competitive	-10.9409
▁landmark	-10.9409
▁acquir	-10.9409
▁geologic	-10.9409
▁belief	-10.9409
▁terminal	-10.941
▁postpone	-10.941
arctic	-10.941
▁offense	-10.941
▁hint	-10.941
▁recep	-10.941
▁remind	-10.9411
▁capabilit	-10.9413
▁frontier	-10.9416
▁keb	-10.9417
napoli	-10.9417
▁priest	-10.9418
▁resistan	-10.9433
▁kath	-10.9435
▁universal	-10.9446
▁presumpti	-10.9448
▁shipment	-10.9449
▁construct	-10.945
viation	-10.9464
▁surg	-10.9469
▁habit	-10.9472
▁pour	-10.9493
▁kell	-10.9494
awat	-10.9551
▁habitat	-10.9563
▁reverse	-10.9577
▁documentar	-10.9614
▁circu	-10.9619
▁confront	-10.9622
▁circle	-10.9627
▁collaborat	-10.9627
▁consecutive	-10.9627
▁expansion	-10.9627
▁prominent	-10.9627
▁suspicious	-10.9627
▁uncertain	-10.9627
▁vitamin	-10.9627
▁adjust	-10.9627
▁precaution	-10.9627
▁fertil	-10.9627
▁permissi	-10.9627
▁adapt	-10.9627
▁ballistic	-10.9628
▁fantas	-10.9628
▁turm	-10.9628
▁mortar	-10.9628
▁salmon	-10.9628
▁medication	-10.9632
▁colonial	-10.9636
▁strange	-10.9638
▁musician	-10.9642
waz	-10.9643
▁zu	-10.9671
ode	-10.9671
▁ramo	-10.9703
vili	-10.9714
▁secur	-10.9719
▁arro	-10.9729
▁chole	-10.9736
lateral	-10.9753
▁consum	-10.9756
▁cam	-10.9768
▁equit	-10.978
▁murr	-10.9796
▁industri	-10.9836
lisa	-10.9837
▁admission	-10.9849
▁bodyguard	-10.9849
▁dissident	-10.9849
▁ecuador	-10.9849
▁evolution	-10.9849
▁transplant	-10.9849
▁tornado	-10.9849
▁deficit	-10.9849
▁empty	-10.9849
▁gyeong	-10.9849
▁chapter	-10.9849
▁clinch	-10.9849
▁disorder	-10.9849
▁restrain	-10.9849
▁uncover	-10.9849
judicial	-10.9849
▁jihad	-10.9849
▁proof	-10.9849
▁libert	-10.9849
▁spray	-10.9849
▁insult	-10.985
▁scheme	-10.985
▁monet	-10.9858
▁amazon	-10.986
refore	-10.986
kovic	-10.986
▁drill	-10.9863
▁urgent	-10.9877
▁thick	-10.9879
▁recogniz	-10.9894
▁gerr	-10.991
iscons	-10.9912
ampa	-10.9924
prom	-10.9943
▁torre	-10.9956
mble	-10.9967
ioxid	-10.9976
piece	-10.9999
walk	-11
tsin	-11.0005
active	-11.0026
▁diploma	-11.0051
▁victoria	-11.0062
▁accompani	-11.0076
▁concession	-11.0076
▁congratulat	-11.0076
▁disturb	-11.0076
▁extensive	-11.0076
▁ibrahim	-11.0076
▁religion	-11.0076
▁tabloid	-11.0076
▁telescope	-11.0076
▁tribute	-11.0076
▁meteorolog	-11.0076
▁depict	-11.0076
▁retaliat	-11.0076
▁unfair	-11.0076
▁genocid	-11.0076
▁kanda	-11.0076
▁chamber	-11.0076
▁uganda	-11.0076
▁pipeline	-11.0077
▁lewis	-11.0077
▁definite	-11.0077
▁evil	-11.0077
▁scholar	-11.0078
▁vision	-11.0081
▁circulat	-11.0084
▁loud	-11.0087
▁background	-11.0089
▁swim	-11.0094
▁buck	-11.0102
▁knight	-11.0102
▁milk	-11.0114
▁nick	-11.0119
▁fake	-11.0127
▁achiev	-11.0133
▁decid	-11.0154
▁experienc	-11.0185
▁berna	-11.0186
▁sacr	-11.0219
ntao	-11.0264
▁wrap	-11.0281
▁occur	-11.0282
▁financ	-11.0289
▁teenage	-11.0293
▁communicat	-11.0297
▁bigge	-11.0305
▁deserve	-11.0305
▁inject	-11.0309
▁ambulance	-11.0309
▁bloom	-11.0309
▁consistent	-11.0309
▁imagine	-11.0309
▁migrant	-11.0309
▁suspension	-11.0309
▁goalkeep	-11.0309
bourne	-11.0309
▁provision	-11.0309
▁pepper	-11.0309
▁dalla	-11.0309
▁twist	-11.0309
▁jolie	-11.0309
▁silence	-11.0309
▁exclusive	-11.0311
▁snake	-11.0311
▁rebound	-11.0316
▁instant	-11.0316
▁recommendation	-11.0321
▁drag	-11.0321
ubble	-11.0322
▁diya	-11.0322
▁replacement	-11.0325
▁lord	-11.0325
▁dragg	-11.0335
▁joke	-11.0385
▁ranch	-11.0412
▁ahmad	-11.0415
volv	-11.0415
▁contractor	-11.0419
▁loh	-11.0443
▁dim	-11.046
▁afr	-11.0492
egu	-11.0493
power	-11.0495
latter	-11.0505
▁purchas	-11.0529
▁speculat	-11.0536
titude	-11.0536
▁embarrass	-11.0547
▁embezzl	-11.0547
▁brigade	-11.0547
▁destination	-11.0547
▁endeavo	-11.0547
▁grenade	-11.0547
▁occupie	-11.0547
▁predecessor	-11.0547
▁tissue	-11.0547
▁unacceptabl	-11.0547
▁veterinar	-11.0547
▁zawah	-11.0547
▁consensu	-11.0547
▁guideline	-11.0547
▁intercept	-11.0547
▁volume	-11.0547
▁brook	-11.0547
▁emirate	-11.0547
▁puert	-11.0547
▁fault	-11.0547
▁nicole	-11.0547
▁katrin	-11.0547
▁plent	-11.0547
▁prosper	-11.0547
munition	-11.0548
▁conven	-11.0549
▁conced	-11.055
▁extradit	-11.0552
▁possession	-11.0553
▁tactic	-11.0554
▁partnership	-11.0555
▁download	-11.0558
▁forget	-11.0559
▁idol	-11.056
▁respondent	-11.0563
fda	-11.0565
▁contribution	-11.0574
▁subsid	-11.0575
▁massacre	-11.058
▁chancell	-11.0584
▁nazi	-11.0641
▁resum	-11.0661
▁wag	-11.0666
▁wav	-11.0717
claren	-11.0738
trea	-11.0767
▁personalit	-11.0783
▁component	-11.0791
▁desperate	-11.0791
▁diagnos	-11.0791
▁extension	-11.0791
▁incredibl	-11.0791
▁infrastructure	-11.0791
▁judiciar	-11.0791
▁oklahoma	-11.0791
▁reluctan	-11.0791
▁entrance	-11.0791
▁telecom	-11.0791
▁vermont	-11.0791
▁skull	-11.0791
▁autonom	-11.0791
▁steep	-11.0791
▁craig	-11.0791
▁outlook	-11.0791
▁videotape	-11.0791
▁implicat	-11.0791
▁absence	-11.0791
skirt	-11.0792
▁dedicat	-11.0792
▁interrogation	-11.0794
▁dirt	-11.0795
▁kyung	-11.0798
▁overturn	-11.0802
▁desk	-11.0805
▁improvement	-11.0808
wai	-11.0809
nmark	-11.0817
▁jewel	-11.0846
▁hip	-11.0847
▁thron	-11.0881
liberation	-11.0912
▁jun	-11.0957
▁fatalit	-11.0965
found	-11.1013
▁nurse	-11.1028
▁assassinat	-11.1029
▁medic	-11.1034
▁depart	-11.1035
▁calculat	-11.1041
▁principal	-11.1041
▁reinforc	-11.1041
▁chicken	-11.1041
▁maritime	-11.1041
▁midfielder	-11.1041
▁spaniard	-11.1041
▁superior	-11.1041
▁wilson	-11.1041
▁drown	-11.1041
▁endorsement	-11.1041
▁assign	-11.1041
▁balloon	-11.1041
▁yasu	-11.1041
▁happi	-11.1041
▁pardon	-11.1041
▁honest	-11.1041
▁amaz	-11.1042
▁ahmed	-11.1042
▁archaeologist	-11.1042
▁airplane	-11.1043
rbach	-11.1043
▁shutdown	-11.1043
▁steal	-11.1044
▁brick	-11.1045
▁tumbl	-11.1045
▁walter	-11.105
▁charl	-11.105
▁graham	-11.1053
▁skeptic	-11.1057
▁mask	-11.1058
▁analysi	-11.1058
▁hye	-11.1059
lett	-11.1065
voi	-11.111
bama	-11.1114
▁jud	-11.1136
fax	-11.1155
▁nair	-11.1173
witt	-11.1177
elli	-11.1201
▁educat	-11.1232
▁univers	-11.1234
▁oct	-11.1259
▁astronomer	-11.1297
▁bacteria	-11.1297
▁descend	-11.1297
▁discount	-11.1297
▁distress	-11.1297
▁enormous	-11.1297
▁landscape	-11.1297
▁legislature	-11.1297
▁marathon	-11.1297
▁taxpayer	-11.1297
▁volatil	-11.1297
▁gradual	-11.1297
▁monarch	-11.1297
▁applau	-11.1297
▁bargain	-11.1297
▁expell	-11.1297
▁courage	-11.1297
▁iphone	-11.1297
▁mirror	-11.1297
▁billionaire	-11.1297
▁regain	-11.1297
▁guild	-11.1297
▁immun	-11.1297
▁patriot	-11.1297
▁burden	-11.1298
▁loose	-11.1299
vacu	-11.13
▁ideolog	-11.1301
▁ruin	-11.1301
▁biologist	-11.1301
▁poison	-11.1302
▁filmmaker	-11.1303
anamo	-11.131
suf	-11.1313
▁gambl	-11.1357
▁repeat	-11.1369
henin	-11.1393
▁pile	-11.1431
▁compli	-11.1465
▁determin	-11.1517
▁populat	-11.1549
turn	-11.155
▁commemorat	-11.156
▁dolphin	-11.156
▁pornograph	-11.156
▁pronounce	-11.156
▁registration	-11.156
▁surprising	-11.156
▁campbell	-11.156
▁thirty	-11.156
▁widow	-11.156
▁teeth	-11.1561
▁analyz	-11.1561
▁hydro	-11.1561
▁composite	-11.1561
▁presum	-11.1562
▁harris	-11.157
▁combination	-11.1574
▁guang	-11.1576
▁gender	-11.1577
▁rigg	-11.1579
▁zoe	-11.159
▁clue	-11.1596
bean	-11.1601
▁parade	-11.1638
▁sevill	-11.164
▁pich	-11.1646
▁toppl	-11.1676
▁enabl	-11.1772
▁slip	-11.1785
▁accomplish	-11.183
▁architect	-11.183
▁accelerat	-11.183
▁beautiful	-11.183
▁benjamin	-11.183
▁coincide	-11.183
▁curfew	-11.183
▁elaborate	-11.183
▁escort	-11.183
▁exhaust	-11.183
▁gunshot	-11.183
▁indefinite	-11.183
▁kazakh	-11.183
▁proliferat	-11.183
▁psychiatr	-11.183
▁bulgaria	-11.183
▁retreat	-11.183
▁venture	-11.183
▁prestig	-11.183
▁probation	-11.183
▁gesture	-11.183
remlin	-11.1831
▁engagement	-11.1831
▁resembl	-11.1831
▁refuge	-11.1831
▁reopen	-11.1831
▁provok	-11.1831
▁dispos	-11.1831
▁talent	-11.1831
▁harbor	-11.1833
▁exceed	-11.1833
▁romantic	-11.1835
▁ferg	-11.1836
▁guess	-11.1847
▁grip	-11.1848
▁subway	-11.1855
▁chill	-11.1856
rotti	-11.1857
▁minne	-11.1857
ebay	-11.1858
▁smart	-11.1869
▁finger	-11.1873
nfl	-11.1935
eigh	-11.1935
oregon	-11.2097
▁pyeong	-11.2108
▁cautious	-11.2108
▁comprehensive	-11.2108
▁prophet	-11.2108
▁scrambl	-11.2108
▁unanimous	-11.2108
▁unpopular	-11.2108
▁mutual	-11.2108
▁prolong	-11.2108
▁buzz	-11.2108
▁vigil	-11.2108
▁yield	-11.2108
▁aspect	-11.2108
▁casino	-11.2108
▁comply	-11.211
▁intervention	-11.211
▁algeria	-11.2111
▁khali	-11.2112
▁elevator	-11.2114
▁surf	-11.2115
▁stamp	-11.2117
point	-11.2138
front	-11.2141
prime	-11.2141
peace	-11.2141
egger	-11.2145
elite	-11.2205
borne	-11.2245
holm	-11.227
▁taste	-11.2272
athrow	-11.2289
▁opera	-11.2297
▁cult	-11.232
curr	-11.2354
▁consolidat	-11.2394
▁asteroid	-11.2394
▁crocodile	-11.2394
▁dinosaur	-11.2394
▁episode	-11.2394
▁incumbent	-11.2394
▁mammal	-11.2394
▁recycl	-11.2394
▁restructur	-11.2394
▁retriev	-11.2394
▁sacrifice	-11.2394
▁crocker	-11.2394
▁reputation	-11.2394
▁nichol	-11.2394
▁propell	-11.2394
▁bahama	-11.2394
▁eligib	-11.2394
▁pirac	-11.2395
▁eager	-11.2395
▁bounc	-11.2395
▁haiti	-11.2395
▁stewar	-11.2399
▁teaching	-11.2399
▁basket	-11.2399
▁slim	-11.24
▁kidney	-11.24
▁juan	-11.2401
▁gwan	-11.2403
▁advocate	-11.2405
▁fisherm	-11.2407
▁acid	-11.241
▁integrat	-11.2556
▁spectac	-11.2562
▁raj	-11.2593
▁java	-11.2596
▁shame	-11.2618
▁musa	-11.2625
▁atlanti	-11.2677
▁counterfeit	-11.2688
▁approximate	-11.2688
▁candidac	-11.2688
▁intimidat	-11.2688
▁lieutenant	-11.2688
▁motorcycle	-11.2688
▁rhetoric	-11.2688
▁schwarz	-11.2688
▁sympath	-11.2688
▁automatic	-11.2688
▁dakota	-11.2688
▁epicenter	-11.2688
▁shrink	-11.2688
▁triumph	-11.2688
▁visual	-11.2688
oprah	-11.2688
▁motive	-11.2688
▁carpet	-11.2688
▁bolster	-11.2688
▁rawal	-11.2688
▁admir	-11.2688
▁twel	-11.2689
▁blind	-11.2689
▁slogan	-11.2689
▁bedroom	-11.269
▁ultra	-11.269
▁geu	-11.2691
▁pure	-11.2692
▁tripoli	-11.2692
▁deadlock	-11.2693
droe	-11.2699
▁ivor	-11.2704
▁formula	-11.2707
▁dodg	-11.2738
world	-11.2764
▁zap	-11.2768
asha	-11.2924
assi	-11.2974
▁contaminat	-11.2991
adequate	-11.2991
▁cathedral	-11.2991
▁deposit	-11.2991
▁enthusias	-11.2991
▁equivalent	-11.2991
▁imminent	-11.2991
▁incursion	-11.2991
▁phenomen	-11.2991
▁sprawl	-11.2991
▁symptom	-11.2991
▁instrument	-11.2991
▁arrangement	-11.2991
▁morocc	-11.2991
▁outdoor	-11.2991
▁incentive	-11.2991
▁bruce	-11.2991
▁jamaica	-11.2991
▁utilit	-11.2991
▁saint	-11.2991
▁divert	-11.2991
▁confine	-11.2991
▁carib	-11.2991
▁fruit	-11.2992
▁bernard	-11.2992
▁strait	-11.2992
▁estonia	-11.2992
▁classroom	-11.2994
▁racial	-11.2994
▁excessive	-11.2994
▁bride	-11.2995
▁nikk	-11.2995
▁shelve	-11.2997
▁glori	-11.2997
▁serge	-11.2997
▁pension	-11.2998
▁accompany	-11.2999
▁loot	-11.3001
▁invad	-11.3016
children	-11.3079
lmand	-11.3137
bank	-11.3293
▁discriminat	-11.3304
accurate	-11.3304
nutrition	-11.3304
▁administrator	-11.3304
▁expedition	-11.3304
▁invitation	-11.3304
▁legislator	-11.3304
▁mammoth	-11.3304
▁surpass	-11.3304
▁unsuccessful	-11.3304
▁exclud	-11.3304
▁revenge	-11.3304
▁stronghold	-11.3304
▁guitar	-11.3304
▁overhaul	-11.3304
▁wrongdoing	-11.3304
▁animated	-11.3304
▁cardinal	-11.3304
▁devot	-11.3304
▁mumm	-11.3304
▁abolish	-11.3304
zhei	-11.3304
▁matsu	-11.3304
akash	-11.3304
▁crunch	-11.3307
▁spect	-11.3328
▁pride	-11.3348
bound	-11.3401
▁blu	-11.3527
dona	-11.354
▁digit	-11.3605
▁humiliat	-11.3626
▁neutral	-11.3626
▁aquarium	-11.3626
▁bathroom	-11.3626
▁explanation	-11.3626
▁pyramid	-11.3626
▁suppress	-11.3626
▁facebook	-11.3626
▁archive	-11.3626
▁breakfast	-11.3626
▁rampage	-11.3626
▁tragic	-11.3626
▁thorough	-11.3626
▁protein	-11.3626
▁toddler	-11.3626
▁cristian	-11.3626
▁restart	-11.3626
▁column	-11.3626
▁diabet	-11.3626
▁depth	-11.3626
▁crater	-11.3627
▁echo	-11.3627
▁pact	-11.3627
▁lynch	-11.3627
▁anthem	-11.3627
▁tumor	-11.3627
▁steam	-11.3627
▁fingerprint	-11.3627
▁empir	-11.3627
▁boast	-11.3627
▁compil	-11.3627
▁dispers	-11.3627
▁merger	-11.3627
▁random	-11.3629
▁contr	-11.3653
▁credib	-11.369
▁fortifi	-11.3829
rmal	-11.3923
▁settl	-11.3954
▁appreciate	-11.3959
▁automobile	-11.3959
▁fujimo	-11.3959
▁margaret	-11.3959
▁norwegian	-11.3959
▁practical	-11.3959
▁scream	-11.3959
▁shepherd	-11.3959
▁sophisticat	-11.3959
▁subsequent	-11.3959
▁equipp	-11.3959
▁hazard	-11.3959
▁judgment	-11.3959
▁tribunal	-11.3959
▁samarra	-11.3959
▁brush	-11.396
▁blitz	-11.396
▁fossil	-11.396
▁squeez	-11.396
▁reunit	-11.396
▁scatter	-11.396
▁verify	-11.396
▁paralyz	-11.396
▁website	-11.396
▁silent	-11.396
▁mccart	-11.3961
▁graphic	-11.3961
▁polish	-11.3961
▁tayyi	-11.3961
▁autops	-11.3962
▁intensifi	-11.3964
▁smooth	-11.3969
▁johnsto	-11.3986
▁caucus	-11.3999
▁jenni	-11.4011
▁persi	-11.4116
▁bibl	-11.4157
▁fisc	-11.4209
▁equ	-11.4214
▁presid	-11.4268
▁recogni	-11.43
elecommunication	-11.4304
▁acquitt	-11.4304
▁artificial	-11.4304
▁atrocit	-11.4304
▁automotive	-11.4304
▁consortium	-11.4304
▁croatia	-11.4304
▁infiltrat	-11.4304
▁mitchell	-11.4304
▁nervous	-11.4304
▁propagand	-11.4304
▁purported	-11.4304
▁scenario	-11.4304
▁sequenc	-11.4304
▁substitute	-11.4304
▁prescription	-11.4304
▁scrutin	-11.4304
▁swallow	-11.4304
▁throat	-11.4304
▁enact	-11.4304
▁imperial	-11.4304
▁rehabilitati	-11.4304
trophy	-11.4304
▁retirement	-11.4304
▁conceal	-11.4305
▁outpost	-11.4305
▁infring	-11.4305
▁epic	-11.4305
▁convey	-11.4305
ponte	-11.4307
▁consent	-11.4307
▁glen	-11.4309
quba	-11.4316
▁marie	-11.4316
▁pipe	-11.4331
▁tube	-11.4357
enhei	-11.4395
▁terribl	-11.4445
▁integr	-11.4462
▁shara	-11.4509
▁emotion	-11.4576
▁transit	-11.4611
▁kidnap	-11.4637
▁dignity	-11.4661
▁douglas	-11.4661
▁epidemic	-11.4661
▁homosexual	-11.4661
▁irregular	-11.4661
▁mcdonald	-11.4661
▁municipal	-11.4661
▁okinawa	-11.4661
▁textbook	-11.4661
▁crystal	-11.4661
▁hormone	-11.4661
▁jacque	-11.4661
▁dissolv	-11.4661
▁pistol	-11.4661
▁bishop	-11.4661
▁galler	-11.4662
▁ceiling	-11.4662
▁underscor	-11.4662
▁nelson	-11.4663
▁ankle	-11.4663
▁grim	-11.4664
▁aziz	-11.4664
▁bryan	-11.4674
yodo	-11.4676
▁decorat	-11.4685
▁rahm	-11.4704
specifi	-11.4707
nebr	-11.4748
▁antho	-11.4767
ugher	-11.4794
▁measur	-11.4818
rbil	-11.4849
▁pond	-11.49
comfortabl	-11.4922
furt	-11.498
▁solv	-11.4994
▁neuro	-11.502
▁columb	-11.502
▁patien	-11.5021
▁distinct	-11.5032
▁aborigin	-11.5032
▁blockbuster	-11.5032
▁brothel	-11.5032
▁catastroph	-11.5032
▁constitute	-11.5032
▁contradict	-11.5032
▁guatemala	-11.5032
▁johannes	-11.5032
▁knife	-11.5032
▁paparazz	-11.5032
▁refrain	-11.5032
▁surplus	-11.5032
▁transmission	-11.5032
▁travolta	-11.5032
▁chronic	-11.5032
▁discharge	-11.5032
▁junior	-11.5032
▁starbuck	-11.5032
▁breast	-11.5032
▁pocket	-11.5032
▁tentative	-11.5032
▁fundrais	-11.5032
▁trademark	-11.5032
▁gorilla	-11.5032
▁relevan	-11.5032
▁proportion	-11.5032
▁domain	-11.5032
▁fahr	-11.5032
▁ignit	-11.5032
▁sierra	-11.5032
▁dominica	-11.5032
▁subsidiar	-11.5032
▁impass	-11.5032
▁milestone	-11.5033
▁reign	-11.5033
▁valid	-11.5033
▁bosnia	-11.5034
▁ftse	-11.5034
▁clemen	-11.5071
▁dementi	-11.5077
artill	-11.5091
oursel	-11.5121
penh	-11.5295
tearn	-11.5323
▁inspect	-11.5384
▁prosecut	-11.5384
▁relocat	-11.5405
▁initiat	-11.5414
▁brilliant	-11.5416
▁condolence	-11.5416
▁conglomerate	-11.5416
▁grandfather	-11.5416
▁homicide	-11.5416
▁kuznetsov	-11.5416
▁obstacle	-11.5416
▁penguin	-11.5416
▁plummet	-11.5416
▁servant	-11.5416
▁simultaneous	-11.5416
▁commodit	-11.5416
▁crippl	-11.5416
▁lecture	-11.5416
▁slush	-11.5416
▁yankee	-11.5416
▁charisma	-11.5416
▁falluja	-11.5416
▁jirga	-11.5416
▁mastermind	-11.5416
▁frighten	-11.5416
▁pioneer	-11.5416
▁deutsch	-11.5416
▁segment	-11.5417
.	-12.9076
¿	-12.9076
